{
  "0": "\u0000",
  "1": "\u0001",
  "2": "\u0002",
  "3": "\u0003",
  "4": "\u0004",
  "5": "\u0005",
  "6": "\u0006",
  "7": "\u0007",
  "8": "\b",
  "9": "\t",
  "10": "\n",
  "11": "\u000b",
  "12": "\f",
  "13": "\r",
  "14": "\u000e",
  "15": "\u000f",
  "16": "\u0010",
  "17": "\u0011",
  "18": "\u0012",
  "19": "\u0013",
  "20": "\u0014",
  "21": "\u0015",
  "22": "\u0016",
  "23": "\u0017",
  "24": "\u0018",
  "25": "\u0019",
  "26": "\u001a",
  "27": "\u001b",
  "28": "\u001c",
  "29": "\u001d",
  "30": "\u001e",
  "31": "\u001f",
  "32": " ",
  "33": "!",
  "34": "\"",
  "35": "#",
  "36": "$",
  "37": "%",
  "38": "&",
  "39": "'",
  "40": "(",
  "41": ")",
  "42": "*",
  "43": "+",
  "44": ",",
  "45": "-",
  "46": ".",
  "47": "/",
  "48": "0",
  "49": "1",
  "50": "2",
  "51": "3",
  "52": "4",
  "53": "5",
  "54": "6",
  "55": "7",
  "56": "8",
  "57": "9",
  "58": ":",
  "59": ";",
  "60": "<",
  "61": "=",
  "62": ">",
  "63": "?",
  "64": "@",
  "65": "A",
  "66": "B",
  "67": "C",
  "68": "D",
  "69": "E",
  "70": "F",
  "71": "G",
  "72": "H",
  "73": "I",
  "74": "J",
  "75": "K",
  "76": "L",
  "77": "M",
  "78": "N",
  "79": "O",
  "80": "P",
  "81": "Q",
  "82": "R",
  "83": "S",
  "84": "T",
  "85": "U",
  "86": "V",
  "87": "W",
  "88": "X",
  "89": "Y",
  "90": "Z",
  "91": "[",
  "92": "\\",
  "93": "]",
  "94": "^",
  "95": "_",
  "96": "`",
  "97": "a",
  "98": "b",
  "99": "c",
  "100": "d",
  "101": "e",
  "102": "f",
  "103": "g",
  "104": "h",
  "105": "i",
  "106": "j",
  "107": "k",
  "108": "l",
  "109": "m",
  "110": "n",
  "111": "o",
  "112": "p",
  "113": "q",
  "114": "r",
  "115": "s",
  "116": "t",
  "117": "u",
  "118": "v",
  "119": "w",
  "120": "x",
  "121": "y",
  "122": "z",
  "123": "{",
  "124": "|",
  "125": "}",
  "126": "~",
  "127": "",
  "128": "",
  "129": "",
  "130": "",
  "131": "",
  "132": "",
  "133": "",
  "134": "",
  "135": "",
  "136": "",
  "137": "",
  "138": "",
  "139": "",
  "140": "",
  "141": "",
  "142": "",
  "143": "",
  "144": "",
  "145": "",
  "146": "",
  "147": "",
  "148": "",
  "149": "",
  "150": "",
  "151": "",
  "152": "",
  "153": "",
  "154": "",
  "155": "",
  "156": "",
  "157": "",
  "158": "",
  "159": "",
  "160": " ",
  "161": "¡",
  "162": "¢",
  "163": "£",
  "164": "¤",
  "165": "¥",
  "166": "¦",
  "167": "§",
  "168": "¨",
  "169": "©",
  "170": "ª",
  "171": "«",
  "172": "¬",
  "173": "­",
  "174": "®",
  "175": "¯",
  "176": "°",
  "177": "±",
  "178": "²",
  "179": "³",
  "180": "´",
  "181": "µ",
  "182": "¶",
  "183": "·",
  "184": "¸",
  "185": "¹",
  "186": "º",
  "187": "»",
  "188": "¼",
  "189": "½",
  "190": "¾",
  "191": "¿",
  "192": "À",
  "193": "Á",
  "194": "Â",
  "195": "Ã",
  "196": "Ä",
  "197": "Å",
  "198": "Æ",
  "199": "Ç",
  "200": "È",
  "201": "É",
  "202": "Ê",
  "203": "Ë",
  "204": "Ì",
  "205": "Í",
  "206": "Î",
  "207": "Ï",
  "208": "Ð",
  "209": "Ñ",
  "210": "Ò",
  "211": "Ó",
  "212": "Ô",
  "213": "Õ",
  "214": "Ö",
  "215": "×",
  "216": "Ø",
  "217": "Ù",
  "218": "Ú",
  "219": "Û",
  "220": "Ü",
  "221": "Ý",
  "222": "Þ",
  "223": "ß",
  "224": "à",
  "225": "á",
  "226": "â",
  "227": "ã",
  "228": "ä",
  "229": "å",
  "230": "æ",
  "231": "ç",
  "232": "è",
  "233": "é",
  "234": "ê",
  "235": "ë",
  "236": "ì",
  "237": "í",
  "238": "î",
  "239": "ï",
  "240": "ð",
  "241": "ñ",
  "242": "ò",
  "243": "ó",
  "244": "ô",
  "245": "õ",
  "246": "ö",
  "247": "÷",
  "248": "ø",
  "249": "ù",
  "250": "ú",
  "251": "û",
  "252": "ü",
  "253": "ý",
  "254": "þ",
  "255": "ÿ",
  "256": "Ġ",
  "257": "<|endoftext|>",
  "258": "Ġt",
  "259": "he",
  "260": "Ġa",
  "261": "in",
  "262": "Ġh",
  "263": "Ġs",
  "264": "Ġw",
  "265": "Ġo",
  "266": "Ġthe",
  "267": "ou",
  "268": "re",
  "269": "it",
  "270": "Ġm",
  "271": "is",
  "272": "ed",
  "273": "at",
  "274": "nd",
  "275": "Ġb",
  "276": "ing",
  "277": "Ġp",
  "278": "as",
  "279": "en",
  "280": "Ġto",
  "281": "Ġd",
  "282": "Ġf",
  "283": "Ġhe",
  "284": "er",
  "285": "Ġha",
  "286": "ĠI",
  "287": "Ġl",
  "288": "Ġof",
  "289": "on",
  "290": "Ġc",
  "291": "Ġth",
  "292": "--",
  "293": "es",
  "294": "or",
  "295": "el",
  "296": "Ġwas",
  "297": "Ġit",
  "298": "an",
  "299": "Ġand",
  "300": "Ġbe",
  "301": "ar",
  "302": "ic",
  "303": "im",
  "304": "Ġon",
  "305": "ac",
  "306": "ow",
  "307": "Ġin",
  "308": "Ġhis",
  "309": "ur",
  "310": "Ġe",
  "311": "Ġg",
  "312": "le",
  "313": "Ġn",
  "314": "ve",
  "315": "st",
  "316": "om",
  "317": "ut",
  "318": "Ġthat",
  "319": "Ġhad",
  "320": "gh",
  "321": "id",
  "322": "ll",
  "323": "ay",
  "324": "ain",
  "325": "Ġmy",
  "326": "ld",
  "327": "Ġu",
  "328": "ly",
  "329": "tr",
  "330": "Ġme",
  "331": "Ġhim",
  "332": "'s",
  "333": "rs",
  "334": "Ġy",
  "335": "Ġwit",
  "336": "Ġwith",
  "337": "ent",
  "338": "ot",
  "339": "ion",
  "340": "'t",
  "341": "ir",
  "342": "se",
  "343": "ould",
  "344": "ght",
  "345": "ro",
  "346": "Ġ\"",
  "347": "Ġyou",
  "348": "ĠM",
  "349": "ad",
  "350": "ĠS",
  "351": "ĠG",
  "352": "urn",
  "353": "al",
  "354": "Ġre",
  "355": "Ġat",
  "356": "ke",
  "357": "ver",
  "358": "ec",
  "359": "Ġwh",
  "360": "ure",
  "361": "ack",
  "362": "Ġhave",
  "363": "ĠT",
  "364": "if",
  "365": "aint",
  "366": "Ġup",
  "367": ".\"",
  "368": "Ġpaint",
  "369": "Ġab",
  "370": "Ġnot",
  "371": "and",
  "372": "ch",
  "373": "n't",
  "374": "burn",
  "375": "oo",
  "376": "rs.",
  "377": "am",
  "378": "ee",
  "379": "Ġone",
  "380": "Ġas",
  "381": "ere",
  "382": "Ġan",
  "383": "Ġst",
  "384": "Ġher",
  "385": "Ġk",
  "386": "isburn",
  "387": "ĠMrs.",
  "388": "ict",
  "389": "Ġsu",
  "390": "Ġfor",
  "391": "aid",
  "392": "oud",
  "393": "Ġ.",
  "394": "ell",
  "395": "est",
  "396": "elf",
  "397": "ce",
  "398": "qu",
  "399": "Ġsh",
  "400": "ind",
  "401": "ĠStr",
  "402": "ĠStroud",
  "403": "ĠGisburn",
  "404": "us",
  "405": "ight",
  "406": "Ġbeen",
  "407": "ter",
  "408": "ust",
  "409": "et",
  "410": "Ġkn",
  "411": "ĠJ",
  "412": "ough",
  "413": "all",
  "414": "Ġpict",
  "415": "Ġpicture",
  "416": "Ġ_",
  "417": "ear",
  "418": "hen",
  "419": "ble",
  "420": "ra",
  "421": "ous",
  "422": "Ġshe",
  "423": "iv",
  "424": "ation",
  "425": "Ġli",
  "426": "s,",
  "427": "y.",
  "428": "au",
  "429": "ked",
  "430": "Ġso",
  "431": "Ġmo",
  "432": "He",
  "433": "Ġr",
  "434": "pp",
  "435": "self",
  "436": "ome",
  "437": "Ġdon",
  "438": "ĠThe",
  "439": "Ġsay",
  "440": "Ġby",
  "441": "Ġdis",
  "442": "own",
  "443": "ect",
  "444": "Ġsee",
  "445": "out",
  "446": "Ġsaid",
  "447": "ĠJack",
  "448": "ied",
  "449": "ĠR",
  "450": "ace",
  "451": "Ġj",
  "452": "Ġout",
  "453": "ant",
  "454": "Ġpo",
  "455": "Ġcould",
  "456": "Ġstr",
  "457": "Ġal",
  "458": "her",
  "459": "hed",
  "460": "Ġv",
  "461": "ill",
  "462": "Ġwould",
  "463": "ast",
  "464": "Ġloo",
  "465": "ard",
  "466": "Ġtr",
  "467": "nder",
  "468": "e,",
  "469": ",\"",
  "470": "Ġde",
  "471": "--t",
  "472": "hat",
  "473": "ĠA",
  "474": "Ġall",
  "475": "s.",
  "476": "our",
  "477": "Ġex",
  "478": "ong",
  "479": "h,",
  "480": "ĠB",
  "481": "red",
  "482": "Ġdid",
  "483": "il",
  "484": "Ġjust",
  "485": "Ġqu",
  "486": "Ġfr",
  "487": "Ġwhen",
  "488": "Ġabout",
  "489": "way",
  "490": "ought",
  "491": "ood",
  "492": "Ġgl",
  "493": "Ġbut",
  "494": "ick",
  "495": "Ġwor",
  "496": "Ġey",
  "497": "Ġthr",
  "498": "act",
  "499": "Ġbr",
  "500": "Ġar",
  "501": "Ġle",
  "502": "Ġever",
  "503": "king",
  "504": "?\"",
  "505": "\"I",
  "506": "Ġen",
  "507": "--s",
  "508": "Ġpainting",
  "509": "Ġhimself",
  "510": "nt",
  "511": "able",
  "512": "Ġcou",
  "513": "Ġis",
  "514": "ul",
  "515": "ct",
  "516": "ess",
  "517": "Ġwho",
  "518": "ft",
  "519": "Ġthrough",
  "520": "ew",
  "521": "Ġdown",
  "522": "ĠIt",
  "523": "Ġif",
  "524": "Ġint",
  "525": "ĠBut",
  "526": "--and",
  "527": "een",
  "528": "ound",
  "529": "Ġfo",
  "530": "ive",
  "531": "um",
  "532": "ig",
  "533": "Ġthing",
  "534": "e.",
  "535": "Ġunder",
  "536": "room",
  "537": "Ġknow",
  "538": "ove",
  "539": "Ġthought",
  "540": "ather",
  "541": "Ġno",
  "542": "Ġwhat",
  "543": "ĠC",
  "544": "ag",
  "545": "Ġthey",
  "546": "Ġwere",
  "547": "Ġonly",
  "548": "Ġeyes",
  "549": "Ġlike",
  "550": "Ġag",
  "551": "wn",
  "552": "Ġhand",
  "553": "dd",
  "554": "Ġaf",
  "555": "Ġdidn't",
  "556": "Ġback",
  "557": "ing,",
  "558": "Ġbet",
  "559": "Ġne",
  "560": "ath",
  "561": "ance",
  "562": "Ġthere",
  "563": "here",
  "564": "Ġhim,",
  "565": "-c",
  "566": "Ġch",
  "567": "Ġman",
  "568": "ious",
  "569": "--I",
  "570": "Ġpl",
  "571": "Ġthat,",
  "572": "y,",
  "573": "Ġor",
  "574": "lo",
  "575": "Ġcan",
  "576": "ide",
  "577": "wing",
  "578": "--h",
  "579": "pl",
  "580": "ĠRick",
  "581": "ĠRickh",
  "582": "ĠRickham",
  "583": "os",
  "584": "ĠAnd",
  "585": "ite",
  "586": "Ġshow",
  "587": "Ġagain",
  "588": "ev",
  "589": "elt",
  "590": "ade",
  "591": "itt",
  "592": "Ġown",
  "593": "one",
  "594": "pt",
  "595": "ife",
  "596": "Ġtoo",
  "597": "Ġsuch",
  "598": "ause",
  "599": "Ġbec",
  "600": "Ġput",
  "601": "es,",
  "602": "ne",
  "603": "ity",
  "604": "Ġfrom",
  "605": "ate",
  "606": "\"O",
  "607": "Ġdo",
  "608": "Ġcur",
  "609": "Ġwat",
  "610": "Ġme,",
  "611": "Ġknew",
  "612": "ĠShe",
  "613": "Ġcouldn't",
  "614": "ĠH",
  "615": "Ġalway",
  "616": "Ġalways",
  "617": "Ġgre",
  "618": "Ġsur",
  "619": "Ġhear",
  "620": "arr",
  "621": "ab",
  "622": "Ġwom",
  "623": "Ġlast",
  "624": "Ġcours",
  "625": "--the",
  "626": "ist",
  "627": "mi",
  "628": "anc",
  "629": "Well",
  "630": "Ġpr",
  "631": "Ġfelt",
  "632": "Ġfact",
  "633": "ret",
  "634": "Ġlitt",
  "635": "Ġlittle",
  "636": "Ġfa",
  "637": "ally",
  "638": "ed,",
  "639": "Ġgiv",
  "640": "Ġgiven",
  "641": "ĠO",
  "642": "--as",
  "643": "Ġafter",
  "644": "ĠJack's",
  "645": "Ġwant",
  "646": "Ġcon",
  "647": "Ġinto",
  "648": "Ġsp",
  "649": "Ġbetw",
  "650": "Ġbetween",
  "651": "Ġfound",
  "652": "ple",
  "653": "Ġtheir",
  "654": "int",
  "655": "ered",
  "656": "ely",
  "657": "Ġget",
  "658": "bj",
  "659": "bject",
  "660": "Ġam",
  "661": "res",
  "662": "un",
  "663": "uc",
  "664": "Ġnow",
  "665": "Ġfir",
  "666": "Ġfirst",
  "667": "Ġsa",
  "668": "rind",
  "669": "Ġit,",
  "670": "ĠHe",
  "671": "Ġfl",
  "672": "Ġwork",
  "673": "ly,",
  "674": "Ġhow",
  "675": "!\"",
  "676": "Ġany",
  "677": "'d",
  "678": "Ġtold",
  "679": "Ġdonke",
  "680": "Ġrather",
  "681": "Ġche",
  "682": "ap",
  "683": "Ġgood",
  "684": "Ġenough",
  "685": "Ġit.",
  "686": "ĠTh",
  "687": "--his",
  "688": "itter",
  "689": "Ġthin",
  "690": "Ġend",
  "691": "fo",
  "692": "ĠGisburn's",
  "693": "ers",
  "694": "ears",
  "695": "Ġface",
  "696": "--it",
  "697": "Ġshould",
  "698": "ling",
  "699": "Ġart",
  "700": "Ġcom",
  "701": "ol",
  "702": "Ġapp",
  "703": "are",
  "704": "Ġir",
  "705": "Ġgr",
  "706": "Ġpro",
  "707": "Ġwife",
  "708": "Ġeas",
  "709": "Ġnear",
  "710": "ak",
  "711": "Ġmight",
  "712": "--b",
  "713": "Ġdra",
  "714": "te",
  "715": "Ġter",
  "716": "Ġday",
  "717": "ly.",
  "718": "ouse",
  "719": "ff",
  "720": "med",
  "721": "Ġpictures",
  "722": "Ġsim",
  "723": "ame",
  "724": "ĠGrind",
  "725": "ĠGrindle",
  "726": "Ġstro",
  "727": "ub",
  "728": "-room",
  "729": "Ġbeg",
  "730": "Ġturn",
  "731": "\"Oh,",
  "732": "Ġlooked",
  "733": "-p",
  "734": "ating",
  "735": "Ġpor",
  "736": "Ġportr",
  "737": "Ġportra",
  "738": "Ġportrait",
  "739": "Ġlau",
  "740": "Ġarm",
  "741": "Ġmore",
  "742": "Ġsome",
  "743": "Ġpainted",
  "744": "Ġsaw",
  "745": "ket",
  "746": "Ġcr",
  "747": "ching",
  "748": "hing",
  "749": "Ġdead",
  "750": "Ġhapp",
  "751": "Ġhappen",
  "752": "Ġtell",
  "753": "Ġgreat",
  "754": "Ġsurp",
  "755": "Ġsurpr",
  "756": "Ġsurpris",
  "757": "Ġglor",
  "758": "\"T",
  "759": "Ġwomen",
  "760": "ĠThwing",
  "761": "Ġsitter",
  "762": "de",
  "763": "ation.",
  "764": "Ġcourse",
  "765": "Ġgo",
  "766": "Ġ'",
  "767": "Ġdon't",
  "768": "Ġthink",
  "769": "ps,",
  "770": "Ġits",
  "771": "ed.",
  "772": "ĠCro",
  "773": "ĠCroft",
  "774": "fore",
  "775": "ity.",
  "776": "ĠP",
  "777": "Ġhim.",
  "778": "ated",
  "779": "Ġhands",
  "780": "ose",
  "781": "Ġshowy",
  "782": "oc",
  "783": "Ġres",
  "784": "Ġbeing",
  "785": "Ġwent",
  "786": "It",
  "787": "Ġtill",
  "788": "ree",
  "789": "Ġlat",
  "790": "Ġwo",
  "791": "em",
  "792": "Ġac",
  "793": "gg",
  "794": "Ġbecause",
  "795": "iss",
  "796": "Ġfail",
  "797": "--she",
  "798": "erest",
  "799": "eresting",
  "800": "Ġdes",
  "801": "tor",
  "802": "ations",
  "803": "Ġhav",
  "804": "Ġway",
  "805": "Ġterr",
  "806": "Ġmyself",
  "807": "ass",
  "808": "Ġlif",
  "809": "Ġad",
  "810": "str",
  "811": "Ġnote",
  "812": "atis",
  "813": "atisf",
  "814": "orn",
  "815": "Ġel",
  "816": "Ġobject",
  "817": "Ġrem",
  "818": "es.",
  "819": "Ġlaid",
  "820": "light",
  "821": "ĠW",
  "822": "Ġtim",
  "823": "Ġthem",
  "824": "for",
  "825": "Ġabs",
  "826": "Ġatt",
  "827": "Ġdear",
  "828": "t,",
  "829": "Ġev",
  "830": "ĠD",
  "831": "Ġturned",
  "832": "Ġroom",
  "833": "tain",
  "834": "Ġhouse",
  "835": "Ġmod",
  "836": "Ġmodest",
  "837": "Ġsent",
  "838": "ai",
  "839": "Ġwhere",
  "840": "air",
  "841": "Ġhead",
  "842": "Ġlooking",
  "843": "Ġmov",
  "844": "Ġmanag",
  "845": "Ġlet",
  "846": "Ġhal",
  "847": "Ġhalf",
  "848": "rself",
  "849": "Ġsw",
  "850": "Ġti",
  "851": "sw",
  "852": "Ġbegan",
  "853": "Ġstill",
  "854": "Ġlong",
  "855": "Ġmin",
  "856": "pect",
  "857": "pected",
  "858": "Ġus",
  "859": "Ġnever",
  "860": "ash",
  "861": "Ġsket",
  "862": "Ġsketch",
  "863": "Ġbeh",
  "864": "Ġbehind",
  "865": "Ġdone",
  "866": "Ġpoor",
  "867": "Ġme.",
  "868": "Ġtw",
  "869": "Ġoff",
  "870": "Ġwatching",
  "871": "Ġfell",
  "872": "pped",
  "873": "Ġmarr",
  "874": "Ġmarried",
  "875": "ich",
  "876": "ĠRiv",
  "877": "ĠRivi",
  "878": "ĠRivier",
  "879": "ĠRiviera",
  "880": "Ġ(",
  "881": "ĠF",
  "882": "--that",
  "883": "Ġcall",
  "884": "Ġcalled",
  "885": "Ġun",
  "886": "Ġit's",
  "887": "Ġlips,",
  "888": "fle",
  "889": "ĠHer",
  "890": "Ġbefore",
  "891": "Ġ\"W",
  "892": "Ġlook",
  "893": "oor",
  "894": "Ġmade",
  "895": "Ġheard",
  "896": "Ġhar",
  "897": "Ġhard",
  "898": "Ġhon",
  "899": "Ġhonour",
  "900": "ĠN",
  "901": "Ġhandsome",
  "902": "itu",
  "903": "ech",
  "904": "iti",
  "905": "on't",
  "906": "ared",
  "907": "Ġdisc",
  "908": "Ġyears",
  "909": "Ġwee",
  "910": "Ġweek",
  "911": "dden",
  "912": "Ġwonder",
  "913": "ĠOn",
  "914": "ction",
  "915": "Ġreally",
  "916": "ĠTo",
  "917": "gged",
  "918": "Ġtak",
  "919": "Ġtaken",
  "920": "ince",
  "921": "--bec",
  "922": "--because",
  "923": "Ġher.",
  "924": "ĠMiss",
  "925": "Ġeasel",
  "926": "Ġinteresting",
  "927": "The",
  "928": "Ġbal",
  "929": "Ġben",
  "930": "Ġbene",
  "931": "Ġbeneath",
  "932": "-t",
  "933": "Ġcl",
  "934": "Ġho",
  "935": "Ġpoint",
  "936": "ull",
  "937": "-h",
  "938": "ention",
  "939": "ible",
  "940": "Ġhus",
  "941": "Ġhusb",
  "942": "Ġhusband",
  "943": "Ġthis",
  "944": "Ġcir",
  "945": "Ġcirc",
  "946": "Ġdel",
  "947": "Ġdelic",
  "948": "Ġdelicate",
  "949": "Ġpe",
  "950": "Ġpeo",
  "951": "Ġpeople",
  "952": "ute",
  "953": "Ġmust",
  "954": "Ġadd",
  "955": "ively",
  "956": "\"M",
  "957": "ss",
  "958": "Ġover",
  "959": "ĠGisburn,",
  "960": "ment",
  "961": "ens",
  "962": "Ġevery",
  "963": "ten",
  "964": "uck",
  "965": "ib",
  "966": "es--",
  "967": "was",
  "968": "--for",
  "969": "Ġseemed",
  "970": "inc",
  "971": "Ġchuc",
  "972": "Ġchucked",
  "973": "ĠV",
  "974": "rose",
  "975": "Ġsun",
  "976": "Ġglanc",
  "977": "Ġglanced",
  "978": "Ġwas,",
  "979": "ng",
  "980": "Ġdrawing",
  "981": "Ġdrawing-room",
  "982": "\"W",
  "983": "ru",
  "984": "ised",
  "985": "ave",
  "986": "oy",
  "987": "Ġrep",
  "988": "nes",
  "989": "ale",
  "990": "Ġpast",
  "991": "\"H",
  "992": "Ġaway",
  "993": "airs",
  "994": "His",
  "995": "Ġyour",
  "996": "Ġcig",
  "997": "Well,",
  "998": "Ġsaid,",
  "999": "Ġlaugh",
  "1000": "Ġfoll",
  "1001": "Ġfollow",
  "1002": "per",
  "1003": "ting",
  "1004": "ung",
  "1005": "rew",
  "1006": "Ġpus",
  "1007": "Ġpushed",
  "1008": "Ġarm-",
  "1009": "Ġarm-ch",
  "1010": "Ġstand",
  "1011": "Ġhere",
  "1012": "Ġmanage",
  "1013": "-pi",
  "1014": "-piec",
  "1015": "Ġwouldn't",
  "1016": "Ġlight",
  "1017": "Ġold",
  "1018": "Ġqual",
  "1019": "Ġpre",
  "1020": "ming,",
  "1021": "Ġherself",
  "1022": "Ġiron",
  "1023": "--\"",
  "1024": "Ġstood",
  "1025": "Ġfore",
  "1026": "Ġsmi",
  "1027": "Ġsmile",
  "1028": "Ġdep",
  "1029": "Ġdepre",
  "1030": "Ġdeprec",
  "1031": "Ġdeprecating",
  "1032": "Ġtra",
  "1033": "Ġthen",
  "1034": "Ġkind",
  "1035": "aking",
  "1036": "lose",
  "1037": "ever",
  "1038": "Ġwithout",
  "1039": "Be",
  "1040": "Ġonce",
  "1041": "Ġplain",
  "1042": "ign",
  "1043": "Ġbre",
  "1044": "ched",
  "1045": "Ġabove",
  "1046": "ĠJove",
  "1047": "Ġdonkey",
  "1048": "ĠY",
  "1049": "Ġansw",
  "1050": "Ġeven",
  "1051": "Ġmu",
  "1052": "Ġ_t",
  "1053": "Ġhistor",
  "1054": "ping",
  "1055": "--on",
  "1056": "Ġhappened",
  "1057": "ward",
  "1058": "Ġare",
  "1059": "Ġgot",
  "1060": "ĠOf",
  "1061": "Ġleft",
  "1062": "ang",
  "1063": "Ġsec",
  "1064": "Ġsecret",
  "1065": "Ġstroke",
  "1066": "Ġquest",
  "1067": "Ġquestion",
  "1068": "Ġgen",
  "1069": "Ġgeni",
  "1070": "hough",
  "1071": "Ġfellow",
  "1072": "--so",
  "1073": "Ġheight",
  "1074": "Ġdro",
  "1075": "Ġdropped",
  "1076": "Ġrich",
  "1077": "abl",
  "1078": "ished",
  "1079": "nce",
  "1080": "Ġglory",
  "1081": "Ġabd",
  "1082": "Ġabdic",
  "1083": "Ġabdication.",
  "1084": "Ġ\"O",
  "1085": "Ġse",
  "1086": "ue",
  "1087": "r.",
  "1088": "Ġword",
  "1089": "Ġrefle",
  "1090": "cted",
  "1091": "Ġvist",
  "1092": "Ġvista",
  "1093": "Ġmour",
  "1094": "Ġmourn",
  "1095": "Ġexqu",
  "1096": "Ġexquis",
  "1097": "ĠHermi",
  "1098": "ĠHermia",
  "1099": "raft",
  "1100": "Ġsto",
  "1101": "Ġ\"M",
  "1102": "Ġtears",
  "1103": "Ġable",
  "1104": "Ġequ",
  "1105": "ĠPoor",
  "1106": "Ġfew",
  "1107": "Ġje",
  "1108": "Ġjeal",
  "1109": "Ġjealous",
  "1110": "Ġjealousy",
  "1111": "erh",
  "1112": "Ġwere,",
  "1113": "Ġvind",
  "1114": "Ġvindic",
  "1115": "Ġvindicated",
  "1116": "Ġbrought",
  "1117": "ton",
  "1118": "very",
  "1119": "ary",
  "1120": "Ġthose",
  "1121": "les",
  "1122": "echn",
  "1123": "ities",
  "1124": "Ġ(I",
  "1125": "Ġcomp",
  "1126": "Ġpainting.",
  "1127": "Ġresol",
  "1128": "Ġresolve",
  "1129": "Ġappare",
  "1130": "Ġapparent",
  "1131": "Ġirre",
  "1132": "uss",
  "1133": "ually",
  "1134": "Ġdied",
  "1135": "ice",
  "1136": "Ġ\"G",
  "1137": "s\"",
  "1138": "Ġlater",
  "1139": "s'",
  "1140": "Ġid",
  "1141": "Ġsudden",
  "1142": "Ġwhy",
  "1143": "Ġacc",
  "1144": "use",
  "1145": "Ġsitters",
  "1146": "ĠFor",
  "1147": "--had",
  "1148": "--since",
  "1149": "Ġliked",
  "1150": "Ġcourse,",
  "1151": "Ġdown,",
  "1152": "Ġfailed",
  "1153": "Ġbrus",
  "1154": "Ġbrush",
  "1155": "Ġdisd",
  "1156": "Ġdisdain",
  "1157": "Ġlife",
  "1158": "ĠMon",
  "1159": "ĠMonte",
  "1160": "ĠCar",
  "1161": "ĠCarlo",
  "1162": "Ġcau",
  "1163": "Ġcaught",
  "1164": "aded",
  "1165": "Ġpin",
  "1166": "Ġnex",
  "1167": "Ġnext",
  "1168": "Ġpal",
  "1169": "aim",
  "1170": "Ġhost",
  "1171": "Ġhostess",
  "1172": "Ġfull",
  "1173": "ance.",
  "1174": "Ġpard",
  "1175": "Ġpardon",
  "1176": "round",
  "1177": "Ġeff",
  "1178": "Ġmed",
  "1179": "Ġmedi",
  "1180": "Ġhaving",
  "1181": "Ġper",
  "1182": "cept",
  "1183": "tract",
  "1184": "Ġsub",
  "1185": "Ġsatisf",
  "1186": "Ġsatisfact",
  "1187": "Ġsatisfaction",
  "1188": "Ġsc",
  "1189": "Ġscorn",
  "1190": "oney",
  "1191": "Ġmost",
  "1192": "fect",
  "1193": "-b",
  "1194": "Ġlatter",
  "1195": "ying",
  "1196": "Ġeight",
  "1197": "Ġeighte",
  "1198": "Ġeighteent",
  "1199": "Ġeighteenth",
  "1200": "Ġeighteenth-c",
  "1201": "Ġeighteenth-cent",
  "1202": "Ġeighteenth-centur",
  "1203": "Ġeighteenth-century",
  "1204": "imin",
  "1205": "Ġexc",
  "1206": "Ġbea",
  "1207": "Ġbeaut",
  "1208": "Ġbeauty",
  "1209": "ross",
  "1210": "Ġsil",
  "1211": "Ġadded",
  "1212": "Jack",
  "1213": "orb",
  "1214": "Ġsens",
  "1215": "Ġthings",
  "1216": "Ġset",
  "1217": "Ġstruck",
  "1218": "Ġseen",
  "1219": "Ġtrib",
  "1220": "Ġbecame",
  "1221": "Ġabsur",
  "1222": "Ġabsurd",
  "1223": "Ġwinc",
  "1224": "Ġwincing",
  "1225": "Ġgar",
  "1226": "Ġgarl",
  "1227": "Ġgarland",
  "1228": "se.",
  "1229": "ĠI'",
  "1230": "ĠI've",
  "1231": "Ġstu",
  "1232": "ĠVict",
  "1233": "ĠVictor",
  "1234": "Ġterrace",
  "1235": "oming",
  "1236": "Ġmom",
  "1237": "Ġmoment",
  "1238": "ie",
  "1239": "erious",
  "1240": "Ġ_rose",
  "1241": "ĠDub",
  "1242": "ĠDubarr",
  "1243": "ĠDubarry",
  "1244": "ĠDubarry_",
  "1245": "Ġdrawing-rooms",
  "1246": "Ġdispl",
  "1247": "Ġdisplay",
  "1248": "Ġgive",
  "1249": "Ġ_h",
  "1250": "Ġasked",
  "1251": "She",
  "1252": "Ġeye",
  "1253": "row",
  "1254": "Ġgood-h",
  "1255": "Ġgood-hum",
  "1256": "Ġgood-humou",
  "1257": "Ġgood-humoured",
  "1258": "Ġdoes",
  "1259": "Ġdoesn't",
  "1260": "Ġsimp",
  "1261": "Ġwhite",
  "1262": "anell",
  "1263": "Ġroom,",
  "1264": "Ġ_f",
  "1265": "amil",
  "1266": "Ġpale",
  "1267": "Ġcurtain",
  "1268": "Ġfram",
  "1269": "Ġhouse.\"",
  "1270": "Ġslight",
  "1271": "Ġcount",
  "1272": "It's",
  "1273": "Ġrid",
  "1274": "Ġridic",
  "1275": "Ġridicul",
  "1276": "Ġridiculous",
  "1277": "Ġsays",
  "1278": "'re",
  "1279": "Ġhe's",
  "1280": "Ġke",
  "1281": "ep",
  "1282": "Ġmodesty",
  "1283": "ĠMy",
  "1284": "Ġcuri",
  "1285": "Ġcurios",
  "1286": "Ġcuriosity",
  "1287": "owing",
  "1288": "-st",
  "1289": "k.",
  "1290": "Ġpers",
  "1291": "Ġ\"I",
  "1292": "nging",
  "1293": "Ġcigar",
  "1294": "ian",
  "1295": "\"Well,",
  "1296": "Ġcome",
  "1297": "Ġtried",
  "1298": "Ġner",
  "1299": "Ġnerv",
  "1300": "Ġnervous",
  "1301": "ness",
  "1302": "Ġfollowed",
  "1303": "Ġamong",
  "1304": "ing.",
  "1305": "Ġdim",
  "1306": "Ġhung",
  "1307": "Ġcanv",
  "1308": "Ġcanvas",
  "1309": "Ġinev",
  "1310": "Ġinevit",
  "1311": "Ġmere",
  "1312": "ine",
  "1313": "Ġmoved",
  "1314": "ere_",
  "1315": "Ġarm-chair",
  "1316": "Ġaway,",
  "1317": "Ġmant",
  "1318": "Ġmantel",
  "1319": "Ġmantel-piec",
  "1320": "Ġstay",
  "1321": "Yes",
  "1322": "Ġstrain",
  "1323": "Ġplace",
  "1324": "Ġplac",
  "1325": "Ġplaced",
  "1326": "Ġbetter",
  "1327": "Ġyet",
  "1328": "Ġgrew",
  "1329": "Ġhalf-",
  "1330": "Ġchar",
  "1331": "Ġtrick",
  "1332": "Ġdi",
  "1333": "vert",
  "1334": "Ġattention",
  "1335": "vance",
  "1336": "resent",
  "1337": "ual",
  "1338": "Ġdeg",
  "1339": "Ġdegree",
  "1340": "Ġ\"str",
  "1341": "Ġ\"strong",
  "1342": "cl",
  "1343": "Ġlift",
  "1344": "Ġlo",
  "1345": "Ġwoman",
  "1346": "ly\"",
  "1347": "Ġtired",
  "1348": "eet",
  "1349": "\"It",
  "1350": "Ġot",
  "1351": "Ġother",
  "1352": "Ġdestr",
  "1353": "oyed",
  "1354": "\"D",
  "1355": "Ġit?\"",
  "1356": "Ġco",
  "1357": "Ġbrown",
  "1358": "ves",
  "1359": "Ġsunburn",
  "1360": "Ġchee",
  "1361": "Ġcheek",
  "1362": "Ġcheeks",
  "1363": "Ġfur",
  "1364": "ps",
  "1365": "fid",
  "1366": "fident",
  "1367": "Ġquality",
  "1368": "Ġcle",
  "1369": "Ġthan",
  "1370": "Ġwanted",
  "1371": "using",
  "1372": "Ġshru",
  "1373": "Ġshoulder",
  "1374": "Ġsm",
  "1375": "Ġpass",
  "1376": "Ġrest",
  "1377": "urb",
  "1378": "ress",
  "1379": "ific",
  "1380": "Ġspite",
  "1381": "Ġlonged",
  "1382": "Ġcry",
  "1383": "Ġ\"Be",
  "1384": "Ġdiss",
  "1385": "Ġdissatisf",
  "1386": "Ġdissatisfied",
  "1387": "Ġsay:",
  "1388": "Ġune",
  "1389": "Ġunex",
  "1390": "Ġunexpected",
  "1391": "Ġpos",
  "1392": "Ġposing",
  "1393": "uction",
  "1394": "Ġdab",
  "1395": "Ġdabble",
  "1396": "ctiv",
  "1397": "\"N",
  "1398": "\"Never",
  "1399": "olour",
  "1400": "--or",
  "1401": "--an",
  "1402": "ouched",
  "1403": "And",
  "1404": "Ġanyt",
  "1405": "Ġanything",
  "1406": "Ġinst",
  "1407": "Ġinstin",
  "1408": "Ġsaid.",
  "1409": "Ġwall",
  "1410": "--a",
  "1411": "Ġclose",
  "1412": "athing",
  "1413": "Ġlin",
  "1414": "--but",
  "1415": "Ġeverl",
  "1416": "Ġeverlast",
  "1417": "Ġeverlasting",
  "1418": "Ġfoundation",
  "1419": "ĠYou",
  "1420": "Ġanswered",
  "1421": "\"A",
  "1422": "Ġdead.\"",
  "1423": "Ġmuch",
  "1424": "--she's",
  "1425": "ful",
  "1426": "ĠStroud.",
  "1427": "Ġide",
  "1428": "Ġidea",
  "1429": "Ġfash",
  "1430": "Ġfashion",
  "1431": "Ġfashionable",
  "1432": "Ġpainter",
  "1433": "Ġsure",
  "1434": "--o",
  "1435": "Ġforc",
  "1436": "Ġpub",
  "1437": "Ġpubl",
  "1438": "Ġpublic",
  "1439": "Ġsay.",
  "1440": "Ġ_that",
  "1441": "Ġ_that_",
  "1442": "Ġhistory.",
  "1443": "Ġbel",
  "1444": "Ġbeli",
  "1445": "Ġbeliev",
  "1446": "Ġbelieved",
  "1447": "Ġbear",
  "1448": "Ġfra",
  "1449": "Ġfrag",
  "1450": "Ġfragment",
  "1451": "Ġgro",
  "1452": "Ġgroping",
  "1453": "Ġwhole",
  "1454": "\"Y",
  "1455": "--only",
  "1456": "Ġ\"When",
  "1457": "Ġins",
  "1458": "Ġlaug",
  "1459": "Ġlaughed",
  "1460": "Ġagain,",
  "1461": "Ġthrew",
  "1462": "Ġdonkey.",
  "1463": "Ġ\"T",
  "1464": "Ġ\"There",
  "1465": "--c",
  "1466": "ured",
  "1467": "ĠThat",
  "1468": "Ġreas",
  "1469": "Ġreason",
  "1470": "Ġtime",
  "1471": "ire",
  "1472": "Ġunderst",
  "1473": "Ġunderstand",
  "1474": "ish",
  "1475": "Ġforg",
  "1476": "ure,",
  "1477": "Ġcare",
  "1478": "Ġstra",
  "1479": "Ġdee",
  "1480": "Ġdeep",
  "1481": "ake",
  "1482": "Ġminut",
  "1483": "Ġremem",
  "1484": "Ġrememb",
  "1485": "Ġremember",
  "1486": "ĠStroud's",
  "1487": "ream",
  "1488": "Ġ_was",
  "1489": "Ġ_was_",
  "1490": "Ġour",
  "1491": "Ġcurre",
  "1492": "Ġcurrent",
  "1493": "Ġgetting",
  "1494": "Ġtwent",
  "1495": "Ġtwenty",
  "1496": "Ġheart",
  "1497": "Ġglad",
  "1498": "Ġgray",
  "1499": "Ġbeard",
  "1500": "th",
  "1501": "ashed",
  "1502": "Ġcove",
  "1503": "Ġcovered",
  "1504": "Ġrec",
  "1505": "Ġstroke.",
  "1506": "ĠRickham,",
  "1507": "Ġlay",
  "1508": "Ġalive",
  "1509": "Ġlate",
  "1510": "Ġhe'd",
  "1511": "ĠHA",
  "1512": "ĠHAD",
  "1513": "Ġcheap",
  "1514": "Ġgenius",
  "1515": "Ġgenius--t",
  "1516": "Ġgenius--though",
  "1517": "Ġenough--so",
  "1518": "Ġsurprise",
  "1519": "Ġglory,",
  "1520": "Ġpainting,",
  "1521": "Ġwid",
  "1522": "Ġwidow",
  "1523": "Ġwidow,",
  "1524": "Ġest",
  "1525": "Ġestabl",
  "1526": "Ġestablished",
  "1527": "Ġvill",
  "1528": "Ġvilla",
  "1529": "ĠRiviera.",
  "1530": "Ġ(T",
  "1531": "Ġ(Though",
  "1532": "ĠRome",
  "1533": "ĠFlo",
  "1534": "ĠFlore",
  "1535": "ĠFlorence",
  "1536": "ĠFlorence.",
  "1537": "ĠFlorence.)",
  "1538": "\"The",
  "1539": "Ġglory\"",
  "1540": "Ġglory\"--that",
  "1541": "ĠGide",
  "1542": "ĠGideon",
  "1543": "ĠThwing--his",
  "1544": "ĠCh",
  "1545": "ĠChic",
  "1546": "ĠChicag",
  "1547": "ĠChicago",
  "1548": "Ġsitter--",
  "1549": "Ġsitter--de",
  "1550": "Ġsitter--depl",
  "1551": "Ġsitter--deplor",
  "1552": "Ġsitter--deploring",
  "1553": "Ġunac",
  "1554": "Ġunacc",
  "1555": "Ġunaccou",
  "1556": "Ġunaccount",
  "1557": "Ġunaccountable",
  "1558": "Ġ\"Of",
  "1559": "Ġgoing",
  "1560": "Ġsend",
  "1561": "Ġval",
  "1562": "Ġvalue",
  "1563": "Ġ'way",
  "1564": "Ġup;",
  "1565": "ĠMr.",
  "1566": "ĠRickham--the",
  "1567": "Ġlos",
  "1568": "Ġloss",
  "1569": "ĠAr",
  "1570": "ĠArr",
  "1571": "ĠArrt",
  "1572": "Ġof.\"",
  "1573": "Ġword,",
  "1574": "ĠThwing's",
  "1575": "Ġmul",
  "1576": "Ġmult",
  "1577": "Ġmulti",
  "1578": "Ġmultipl",
  "1579": "Ġmultiplied",
  "1580": "Ġ_rs",
  "1581": "Ġ_rs_",
  "1582": "Ġthough",
  "1583": "Ġreflected",
  "1584": "Ġendl",
  "1585": "Ġendless",
  "1586": "Ġmir",
  "1587": "Ġmirr",
  "1588": "Ġmirror",
  "1589": "Ġmirrors.",
  "1590": "ĠThwings",
  "1591": "Ġmourned.",
  "1592": "ĠHad",
  "1593": "Ġexquisite",
  "1594": "ĠCroft,",
  "1595": "ĠGraft",
  "1596": "ĠGrafton",
  "1597": "ĠGall",
  "1598": "ĠGaller",
  "1599": "ĠGallery",
  "1600": "Ġshow,",
  "1601": "Ġstopped",
  "1602": "Ġ\"Mo",
  "1603": "Ġ\"Moon",
  "1604": "Ġ\"Moon-",
  "1605": "Ġ\"Moon-d",
  "1606": "Ġ\"Moon-danc",
  "1607": "Ġ\"Moon-dancers",
  "1608": "Ġ\"Moon-dancers\"",
  "1609": "Ġsay,",
  "1610": "Ġeyes:",
  "1611": "Ġ\"We",
  "1612": "Ġshall",
  "1613": "Ġupon",
  "1614": "Ġagain\"",
  "1615": "Ġagain\"?",
  "1616": "Well!",
  "1617": "Well!--",
  "1618": "Well!--ev",
  "1619": "Well!--even",
  "1620": "Ġpris",
  "1621": "Ġprism",
  "1622": "ĠHermia's",
  "1623": "Ġequan",
  "1624": "Ġequanim",
  "1625": "Ġequanimity.",
  "1626": "ĠGisburn!",
  "1627": "Ġhim--it",
  "1628": "Ġfitt",
  "1629": "Ġfitting",
  "1630": "ĠAm",
  "1631": "ĠAmong",
  "1632": "Ġsex",
  "1633": "Ġfewer",
  "1634": "Ġreg",
  "1635": "Ġregret",
  "1636": "Ġregrets",
  "1637": "Ġheard,",
  "1638": "Ġtrade",
  "1639": "Ġhardly",
  "1640": "Ġmur",
  "1641": "Ġmurm",
  "1642": "Ġmurmur",
  "1643": "Ġmurmur.",
  "1644": "ĠPro",
  "1645": "ĠProf",
  "1646": "ĠProfess",
  "1647": "ĠProfession",
  "1648": "ĠProfessional",
  "1649": "Ġjealousy?",
  "1650": "ĠPerh",
  "1651": "ĠPerhap",
  "1652": "ĠPerhaps.",
  "1653": "ĠIf",
  "1654": "Ġcraft",
  "1655": "ĠCl",
  "1656": "ĠClau",
  "1657": "ĠClaude",
  "1658": "ĠNut",
  "1659": "ĠNutle",
  "1660": "ĠNutley,",
  "1661": "Ġwho,",
  "1662": "Ġfait",
  "1663": "Ġfaith,",
  "1664": "ĠBur",
  "1665": "ĠBurling",
  "1666": "ĠBurlington",
  "1667": "Ġvery",
  "1668": "Ġ\"o",
  "1669": "Ġ\"ob",
  "1670": "Ġ\"obitu",
  "1671": "Ġ\"obituary",
  "1672": "Ġ\"obituary\"",
  "1673": "ĠJack--",
  "1674": "ĠJack--one",
  "1675": "Ġartic",
  "1676": "Ġarticles",
  "1677": "Ġstoc",
  "1678": "Ġstocked",
  "1679": "Ġrand",
  "1680": "Ġrandom",
  "1681": "Ġtechn",
  "1682": "Ġtechnic",
  "1683": "Ġtechnical",
  "1684": "Ġtechnicalities",
  "1685": "Ġwon't",
  "1686": "Ġwhom",
  "1687": "Ġwhom)",
  "1688": "Ġcompared",
  "1689": "Ġso--his",
  "1690": "Ġapparently",
  "1691": "Ġirrev",
  "1692": "Ġirrevoc",
  "1693": "Ġirrevocable",
  "1694": "Ġirrevocable--the",
  "1695": "Ġdiscuss",
  "1696": "Ġdiscussion",
  "1697": "Ġgrad",
  "1698": "Ġgradually",
  "1699": "Ġout,",
  "1700": "Ġand,",
  "1701": "Ġpred",
  "1702": "Ġpredict",
  "1703": "Ġpredicted,",
  "1704": "Ġprice",
  "1705": "Ġ\"Gisburn",
  "1706": "Ġ\"Gisburns\"",
  "1707": "Ġup.",
  "1708": "Ġthree",
  "1709": "Ġweeks'",
  "1710": "Ġidling",
  "1711": "ĠRiviera,",
  "1712": "Ġsuddenly",
  "1713": "Ġoc",
  "1714": "Ġocc",
  "1715": "Ġoccur",
  "1716": "Ġoccurred",
  "1717": "Ġreflection",
  "1718": "Ġreflection,",
  "1719": "Ġtem",
  "1720": "Ġtempt",
  "1721": "Ġtempting",
  "1722": "Ġproble",
  "1723": "Ġproblem",
  "1724": "Ġproblem.",
  "1725": "Ġaccuse",
  "1726": "Ġeasy",
  "1727": "Ġeasy--his",
  "1728": "Ġfair",
  "1729": "Ġden",
  "1730": "Ġdenied",
  "1731": "Ġsol",
  "1732": "Ġsolace",
  "1733": "Ġsaying",
  "1734": "Ġ\"d",
  "1735": "Ġ\"dra",
  "1736": "Ġ\"dragged",
  "1737": "Ġdown.\"",
  "1738": "ĠGisburn--as",
  "1739": "Ġsuch--had",
  "1740": "Ġexist",
  "1741": "Ġexisted",
  "1742": "Ġnearly",
  "1743": "Ġyear",
  "1744": "Ġtaken.",
  "1745": "Ġher--since",
  "1746": "Ġease",
  "1747": "Ġease--because",
  "1748": "Ġpainting;",
  "1749": "Ġprove",
  "1750": "Of",
  "1751": "Ġdragged",
  "1752": "Ġequall",
  "1753": "Ġequally,",
  "1754": "Ġconte",
  "1755": "Ġcontend",
  "1756": "Ġcontended,",
  "1757": "Ġ\"l",
  "1758": "Ġ\"lif",
  "1759": "Ġ\"lift",
  "1760": "Ġup\"",
  "1761": "Ġup\"--she",
  "1762": "Ġled",
  "1763": "Ġeasel.",
  "1764": "Ġagain--",
  "1765": "Ġagain--w",
  "1766": "Ġagain--what",
  "1767": "Ġvoc",
  "1768": "Ġvocation",
  "1769": "Ġwife!",
  "1770": "Ġappe",
  "1771": "Ġappeared",
  "1772": "Ġdisdained",
  "1773": "Ġit--and",
  "1774": "Ġfind",
  "1775": "Ġwhy.",
  "1776": "Ġdesul",
  "1777": "Ġdesultor",
  "1778": "Ġdesultory",
  "1779": "Ġlend",
  "1780": "Ġlends",
  "1781": "Ġitself",
  "1782": "Ġpure",
  "1783": "Ġpurely",
  "1784": "Ġacade",
  "1785": "Ġacadem",
  "1786": "Ġacademic",
  "1787": "Ġspec",
  "1788": "Ġspecul",
  "1789": "Ġspeculations",
  "1790": "Ġspeculations;",
  "1791": "Ġhaving,",
  "1792": "ĠCarlo,",
  "1793": "Ġglim",
  "1794": "Ġglimp",
  "1795": "Ġglimpse",
  "1796": "Ġbalust",
  "1797": "Ġbalustr",
  "1798": "Ġbalustraded",
  "1799": "Ġterrac",
  "1800": "Ġterraces",
  "1801": "Ġpines,",
  "1802": "Ġbor",
  "1803": "Ġborne",
  "1804": "Ġthit",
  "1805": "Ġthither",
  "1806": "Ġday.",
  "1807": "Ġcouple",
  "1808": "Ġte",
  "1809": "Ġtea",
  "1810": "Ġpalm",
  "1811": "Ġpalm-t",
  "1812": "Ġpalm-tre",
  "1813": "Ġpalm-trees",
  "1814": "Ġpalm-trees;",
  "1815": "Ġwel",
  "1816": "Ġwelc",
  "1817": "Ġwelcome",
  "1818": "Ġgenial",
  "1819": "Ġens",
  "1820": "Ġensu",
  "1821": "Ġensuing",
  "1822": "Ġweeks,",
  "1823": "Ġclaim",
  "1824": "Ġclaimed",
  "1825": "Ġfre",
  "1826": "Ġfrequ",
  "1827": "Ġfrequent",
  "1828": "Ġfrequently.",
  "1829": "Ġ\"int",
  "1830": "Ġ\"interesting",
  "1831": "Ġ\"interesting\"",
  "1832": "Ġ\"interesting\":",
  "1833": "Ġfullest",
  "1834": "Ġreass",
  "1835": "Ġreassur",
  "1836": "Ġreassurance.",
  "1837": "Ġ_n",
  "1838": "Ġ_not",
  "1839": "Ġ_not_",
  "1840": "Ġinteresting--",
  "1841": "Ġinteresting--if",
  "1842": "Ġmay",
  "1843": "Ġpardoned",
  "1844": "Ġbull",
  "1845": "Ġbull--that",
  "1846": "Ġso.",
  "1847": "ĠJack,",
  "1848": "Ġlife,",
  "1849": "Ġsurround",
  "1850": "Ġsurrounded",
  "1851": "Ġwomen:",
  "1852": "Ġfost",
  "1853": "Ġfostered",
  "1854": "Ġart,",
  "1855": "Ġreared",
  "1856": "Ġhot",
  "1857": "Ġhot-h",
  "1858": "Ġhot-house",
  "1859": "Ġadul",
  "1860": "Ġadulation.",
  "1861": "Ġtherefore",
  "1862": "Ġinstr",
  "1863": "Ġinstru",
  "1864": "Ġinstruct",
  "1865": "Ġinstructive",
  "1866": "Ġeffect",
  "1867": "Ġ\"de",
  "1868": "Ġ\"dead",
  "1869": "Ġ\"deaden",
  "1870": "Ġ\"deadening",
  "1871": "Ġatm",
  "1872": "Ġatmos",
  "1873": "Ġatmosp",
  "1874": "Ġatmosphere",
  "1875": "Ġmedioc",
  "1876": "Ġmediocr",
  "1877": "Ġmediocrity",
  "1878": "Ġmediocrity\"",
  "1879": "Ġquot",
  "1880": "Ġquote",
  "1881": "ĠCroft)",
  "1882": "Ġmention",
  "1883": "Ġmentioned",
  "1884": "Ġrich;",
  "1885": "Ġim",
  "1886": "Ġimmed",
  "1887": "Ġimmedi",
  "1888": "Ġimmediat",
  "1889": "Ġimmediately",
  "1890": "Ġpercept",
  "1891": "Ġperceptible",
  "1892": "Ġextract",
  "1893": "Ġextracting",
  "1894": "Ġcircum",
  "1895": "Ġcircumst",
  "1896": "Ġcircumstance",
  "1897": "Ġsubst",
  "1898": "Ġsubstant",
  "1899": "Ġsubstanti",
  "1900": "Ġsubstantial",
  "1901": "Ġsatisfaction.",
  "1902": "Ġis,",
  "1903": "Ġru",
  "1904": "Ġrule",
  "1905": "Ġrule,",
  "1906": "Ġmoney",
  "1907": "Ġit;",
  "1908": "Ġele",
  "1909": "Ġeleg",
  "1910": "Ġelegant",
  "1911": "Ġwife's",
  "1912": "Ġbig",
  "1913": "Ġbalance",
  "1914": "Ġenabl",
  "1915": "Ġenabled",
  "1916": "Ġappear",
  "1917": "Ġappearance",
  "1918": "Ġperfect",
  "1919": "Ġgood-b",
  "1920": "Ġgood-bre",
  "1921": "Ġgood-breed",
  "1922": "Ġgood-breeding,",
  "1923": "Ġtran",
  "1924": "Ġtrans",
  "1925": "Ġtransm",
  "1926": "Ġtransmute",
  "1927": "Ġobjects",
  "1928": "Ġlu",
  "1929": "Ġlux",
  "1930": "Ġluxur",
  "1931": "Ġluxury.",
  "1932": "Ġlatter,",
  "1933": "Ġadd,",
  "1934": "Ġremain",
  "1935": "Ġremained",
  "1936": "Ġrel",
  "1937": "Ġrelat",
  "1938": "Ġrelatively",
  "1939": "Ġind",
  "1940": "Ġindif",
  "1941": "Ġindiff",
  "1942": "Ġindiffere",
  "1943": "Ġindifferent",
  "1944": "Ġindifferent;",
  "1945": "Ġbu",
  "1946": "Ġbuying",
  "1947": "ĠRen",
  "1948": "ĠRena",
  "1949": "ĠRenaiss",
  "1950": "ĠRenaissance",
  "1951": "Ġbron",
  "1952": "Ġbronz",
  "1953": "Ġbronzes",
  "1954": "Ġdiscr",
  "1955": "Ġdiscrimin",
  "1956": "Ġdiscrimination",
  "1957": "Ġbes",
  "1958": "Ġbesp",
  "1959": "Ġbespo",
  "1960": "Ġbespoke",
  "1961": "Ġampl",
  "1962": "Ġamplest",
  "1963": "Ġresour",
  "1964": "Ġresourc",
  "1965": "Ġresources.",
  "1966": "\"Money",
  "1967": "\"Money's",
  "1968": "Ġexcuse",
  "1969": "Ġcircul",
  "1970": "Ġcirculation",
  "1971": "Ġcirculation,\"",
  "1972": "Ġax",
  "1973": "Ġaxi",
  "1974": "Ġaxiom",
  "1975": "Ġaxioms",
  "1976": "Ġacross",
  "1977": "ĠSev",
  "1978": "ĠSevres",
  "1979": "Ġsilver",
  "1980": "Ġexquisit",
  "1981": "Ġexquisitely",
  "1982": "Ġappo",
  "1983": "Ġappoint",
  "1984": "Ġappointed",
  "1985": "Ġlun",
  "1986": "Ġlunc",
  "1987": "Ġlunche",
  "1988": "Ġluncheon",
  "1989": "Ġluncheon-t",
  "1990": "Ġluncheon-table",
  "1991": "Ġluncheon-table,",
  "1992": "Ġwhen,",
  "1993": "Ġday,",
  "1994": "Ġrun",
  "1995": "ĠCarlo;",
  "1996": "Ġbeam",
  "1997": "Ġbeaming",
  "1998": "Ġenlight",
  "1999": "Ġenlighten",
  "2000": "Ġenlightenment",
  "2001": "Ġenlightenment:",
  "2002": "Ġ\"Jack",
  "2003": "Ġmorb",
  "2004": "Ġmorbid",
  "2005": "Ġmorbidly",
  "2006": "Ġsensit",
  "2007": "Ġsensitive",
  "2008": "Ġform",
  "2009": "Ġbeauty.\"",
  "2010": "Poor",
  "2011": "ĠJack!",
  "2012": "Ġfate",
  "2013": "Ġhim:",
  "2014": "Ġexten",
  "2015": "Ġextenu",
  "2016": "Ġextenuation.",
  "2017": "ĠWhat",
  "2018": "Ġtime,",
  "2019": "Ġresent",
  "2020": "Ġresented",
  "2021": "Ġton",
  "2022": "Ġtone.",
  "2023": "Ġoften",
  "2024": "Ġoften,",
  "2025": "Ġbas",
  "2026": "Ġbasking",
  "2027": "Ġsimil",
  "2028": "Ġsimilar",
  "2029": "Ġtribut",
  "2030": "Ġtributes--",
  "2031": "Ġtributes--was",
  "2032": "Ġconj",
  "2033": "Ġconju",
  "2034": "Ġconjug",
  "2035": "Ġconjugal",
  "2036": "Ġro",
  "2037": "Ġrob",
  "2038": "Ġrobb",
  "2039": "Ġrobbed",
  "2040": "Ġsav",
  "2041": "Ġsavour",
  "2042": "Ġsavour?",
  "2043": "ĠNo",
  "2044": "ĠNo--for",
  "2045": "ĠNo--for,",
  "2046": "Ġodd",
  "2047": "Ġoddly",
  "2048": "Ġenough,",
  "2049": "Ġfond",
  "2050": "ĠGisburn--",
  "2051": "ĠGisburn--fo",
  "2052": "ĠGisburn--fond",
  "2053": "Ġabsurdity.",
  "2054": "Ġabsurdity",
  "2055": "Ġunder--his",
  "2056": "Ġattitu",
  "2057": "Ġattitude",
  "2058": "Ġgarlands",
  "2059": "Ġinc",
  "2060": "Ġincen",
  "2061": "Ġincense.",
  "2062": "\"My",
  "2063": "Ġdear,",
  "2064": "Ġsince",
  "2065": "Ġstuff",
  "2066": "Ġme--the",
  "2067": "Ġme--they",
  "2068": "ĠGrindle,\"",
  "2069": "Ġprot",
  "2070": "Ġprotest",
  "2071": "Ġprotest,",
  "2072": "Ġrose",
  "2073": "Ġtable",
  "2074": "Ġstroll",
  "2075": "Ġstrolled",
  "2076": "Ġont",
  "2077": "Ġonto",
  "2078": "Ġsunl",
  "2079": "Ġsunlit",
  "2080": "Ġterrace.",
  "2081": "Ġword.",
  "2082": "Ġfact,",
  "2083": "Ġbecoming",
  "2084": "Ġmoment--as",
  "2085": "Ġhimself,",
  "2086": "Ġhour",
  "2087": "Ġhour.",
  "2088": "Ġyoung",
  "2089": "Ġyounger",
  "2090": "Ġartist",
  "2091": "Ġformed",
  "2092": "Ġfrie",
  "2093": "Ġfriend",
  "2094": "Ġfriend's",
  "2095": "Ġfee",
  "2096": "Ġfeet,",
  "2097": "Ġwond",
  "2098": "Ġwondered",
  "2099": "Ġting",
  "2100": "Ġtinge",
  "2101": "Ġunderl",
  "2102": "Ġunderlay",
  "2103": "Ġlatter's",
  "2104": "Ġmyst",
  "2105": "Ġmysterious",
  "2106": "Ġno--for",
  "2107": "Ġevent",
  "2108": "Ġbegun",
  "2109": "Ġ\"Grind",
  "2110": "Ġ\"Grindles",
  "2111": "Ġ\"Grindles.\"",
  "2112": "Ġling",
  "2113": "Ġlingered",
  "2114": "Ġlum",
  "2115": "Ġlump",
  "2116": "Ġsug",
  "2117": "Ġsugar",
  "2118": "Ġspan",
  "2119": "Ġspani",
  "2120": "Ġspaniel",
  "2121": "Ġdin",
  "2122": "Ġdining",
  "2123": "Ġdining-room",
  "2124": "Ġdining-room.",
  "2125": "\"Wh",
  "2126": "\"Why",
  "2127": "Ġ_has",
  "2128": "Ġ_has_",
  "2129": "Ġpainting?\"",
  "2130": "Ġabru",
  "2131": "Ġabrupt",
  "2132": "Ġabruptly.",
  "2133": "Ġra",
  "2134": "Ġraised",
  "2135": "Ġeyeb",
  "2136": "Ġeyebrow",
  "2137": "Ġeyebrows",
  "2138": "Ġhint",
  "2139": "Ġsurprise.",
  "2140": "Ġ_have",
  "2141": "Ġ_have_",
  "2142": "Ġnow,",
  "2143": "Ġknow;",
  "2144": "Ġenj",
  "2145": "Ġenjoy",
  "2146": "Ġhimself,\"",
  "2147": "Ġquite",
  "2148": "Ġsimply.",
  "2149": "Ġspac",
  "2150": "Ġspacious",
  "2151": "Ġwhite-p",
  "2152": "Ġwhite-panell",
  "2153": "Ġwhite-panelled",
  "2154": "Ġ_famil",
  "2155": "Ġ_famille",
  "2156": "Ġ_famille-",
  "2157": "Ġ_famille-ver",
  "2158": "Ġ_famille-verte",
  "2159": "Ġ_famille-verte_",
  "2160": "Ġvas",
  "2161": "Ġvases",
  "2162": "Ġrepe",
  "2163": "Ġrepeating",
  "2164": "Ġtones",
  "2165": "Ġdam",
  "2166": "Ġdamas",
  "2167": "Ġdamask",
  "2168": "Ġcurtains,",
  "2169": "Ġpastel",
  "2170": "Ġpastels",
  "2171": "Ġfaded",
  "2172": "Ġframes.",
  "2173": "\"Has",
  "2174": "Ġtoo?",
  "2175": "Ġhaven",
  "2176": "Ġhaven't",
  "2177": "Ġsing",
  "2178": "Ġsingle",
  "2179": "Ġshade",
  "2180": "Ġconstr",
  "2181": "Ġconstraint",
  "2182": "Ġcross",
  "2183": "Ġcrossed",
  "2184": "Ġop",
  "2185": "Ġopen",
  "2186": "Ġcounten",
  "2187": "Ġcountenance.",
  "2188": "Ġ\"It's",
  "2189": "Ġmodesty,",
  "2190": "Ġknow.",
  "2191": "Ġthey're",
  "2192": "Ġfit",
  "2193": "Ġabout;",
  "2194": "Ġexcept",
  "2195": "Ġone--",
  "2196": "Ġone--m",
  "2197": "Ġone--my",
  "2198": "Ġportrait--and",
  "2199": "Ġkeep",
  "2200": "Ġupst",
  "2201": "Ġupstairs",
  "2202": "Ġupstairs.\"",
  "2203": "Ġmodesty--",
  "2204": "Ġmodesty--Jack",
  "2205": "Ġmodesty--Jack's",
  "2206": "Ġpictures?",
  "2207": "Ġgrowing",
  "2208": "Ġbean",
  "2209": "Ġbean-st",
  "2210": "Ġbean-stal",
  "2211": "Ġbean-stalk.",
  "2212": "Ġpersu",
  "2213": "Ġpersuas",
  "2214": "Ġpersuasively",
  "2215": "Ġhostess:",
  "2216": "Ġportrait,",
  "2217": "Ġknow.\"",
  "2218": "Ġalm",
  "2219": "Ġalmo",
  "2220": "Ġalmost",
  "2221": "Ġtimor",
  "2222": "Ġtimorous",
  "2223": "Ġtimorously",
  "2224": "Ġhusband,",
  "2225": "Ġlou",
  "2226": "Ġlounging",
  "2227": "Ġhood",
  "2228": "Ġhooded",
  "2229": "Ġchair",
  "2230": "Ġchair,",
  "2231": "Ġlit",
  "2232": "Ġdrawn",
  "2233": "ĠRuss",
  "2234": "ĠRussian",
  "2235": "Ġdeerh",
  "2236": "Ġdeerhound",
  "2237": "Ġdeerhound's",
  "2238": "Ġkne",
  "2239": "Ġknees.",
  "2240": "Ġwhi",
  "2241": "Ġwhile",
  "2242": "Ġlooking,\"",
  "2243": "Ġhide",
  "2244": "Ġnervousness",
  "2245": "Ġnervousness;",
  "2246": "Ġmar",
  "2247": "Ġmarble",
  "2248": "ĠE",
  "2249": "ĠEm",
  "2250": "ĠEmper",
  "2251": "ĠEmperor",
  "2252": "ĠEmperors",
  "2253": "Ġhall",
  "2254": "Ġhall,",
  "2255": "Ġwide",
  "2256": "Ġstairs",
  "2257": "Ġterra",
  "2258": "Ġterra-c",
  "2259": "Ġterra-cot",
  "2260": "Ġterra-cott",
  "2261": "Ġterra-cotta",
  "2262": "Ġny",
  "2263": "Ġnym",
  "2264": "Ġnymp",
  "2265": "Ġnymph",
  "2266": "Ġnymphs",
  "2267": "Ġpoised",
  "2268": "Ġflow",
  "2269": "Ġflowers",
  "2270": "Ġeac",
  "2271": "Ġeach",
  "2272": "Ġland",
  "2273": "Ġlanding.",
  "2274": "In",
  "2275": "Ġdimm",
  "2276": "Ġdimmest",
  "2277": "Ġcorn",
  "2278": "Ġcorner",
  "2279": "Ġboud",
  "2280": "Ġboudo",
  "2281": "Ġboudoir",
  "2282": "Ġboudoir,",
  "2283": "Ġamid",
  "2284": "Ġprof",
  "2285": "Ġprofus",
  "2286": "Ġprofusion",
  "2287": "Ġdisting",
  "2288": "Ġdistingu",
  "2289": "Ġdistinguished",
  "2290": "Ġobjects,",
  "2291": "Ġfamil",
  "2292": "Ġfamili",
  "2293": "Ġfamiliar",
  "2294": "Ġov",
  "2295": "Ġoval",
  "2296": "Ġcanvases,",
  "2297": "Ġinevitable",
  "2298": "Ġgarlanded",
  "2299": "Ġframe.",
  "2300": "Ġoutl",
  "2301": "Ġoutline",
  "2302": "Ġframe",
  "2303": "Ġpast!",
  "2304": "Mrs.",
  "2305": "Ġdrew",
  "2306": "Ġwind",
  "2307": "Ġwindow",
  "2308": "Ġwindow-c",
  "2309": "Ġwindow-cur",
  "2310": "Ġwindow-curtain",
  "2311": "Ġwindow-curtains,",
  "2312": "Ġaside",
  "2313": "Ġ_j",
  "2314": "Ġ_jard",
  "2315": "Ġ_jardin",
  "2316": "Ġ_jardini",
  "2317": "Ġ_jardiniere_",
  "2318": "Ġpink",
  "2319": "Ġaz",
  "2320": "Ġazale",
  "2321": "Ġazaleas",
  "2322": "Ġazaleas,",
  "2323": "Ġsaid:",
  "2324": "Ġ\"If",
  "2325": "Ġmantel-piece,",
  "2326": "Ġstay.\"",
  "2327": "Yes--I",
  "2328": "Ġit--the",
  "2329": "Ġover!",
  "2330": "ĠU",
  "2331": "ĠUs",
  "2332": "ĠUsually",
  "2333": "Ġhonour--s",
  "2334": "Ġhonour--say",
  "2335": "Ġcen",
  "2336": "Ġcentr",
  "2337": "Ġcentral",
  "2338": "Ġpan",
  "2339": "Ġpanel",
  "2340": "Ġyell",
  "2341": "Ġyellow",
  "2342": "Ġdrawing-room,",
  "2343": "Ġmon",
  "2344": "Ġmonum",
  "2345": "Ġmonument",
  "2346": "Ġmonumental",
  "2347": "Ġtook",
  "2348": "Ġcurtains",
  "2349": "ĠVen",
  "2350": "ĠVenet",
  "2351": "ĠVenetian",
  "2352": "Ġpoint.",
  "2353": "Ġbetter;",
  "2354": "Ġyet,",
  "2355": "Ġaccust",
  "2356": "Ġaccustom",
  "2357": "Ġaccustomed",
  "2358": "Ġhalf-light",
  "2359": "Ġhalf-light,",
  "2360": "Ġcharac",
  "2361": "Ġcharacter",
  "2362": "Ġcharacterist",
  "2363": "Ġcharacteristic",
  "2364": "Ġqualities",
  "2365": "Ġcame",
  "2366": "Ġout--",
  "2367": "Ġout--all",
  "2368": "Ġhes",
  "2369": "Ġhesit",
  "2370": "Ġhesitations",
  "2371": "Ġdisg",
  "2372": "Ġdisgu",
  "2373": "Ġdisguised",
  "2374": "Ġau",
  "2375": "Ġaud",
  "2376": "Ġaudac",
  "2377": "Ġaudaciti",
  "2378": "Ġaudacities,",
  "2379": "Ġtricks",
  "2380": "Ġprest",
  "2381": "Ġprestid",
  "2382": "Ġprestidig",
  "2383": "Ġprestidigit",
  "2384": "Ġprestidigitation",
  "2385": "Ġwhic",
  "2386": "Ġwhich,",
  "2387": "Ġcons",
  "2388": "Ġconsum",
  "2389": "Ġconsumm",
  "2390": "Ġconsummate",
  "2391": "Ġsk",
  "2392": "Ġskill",
  "2393": "Ġskill,",
  "2394": "Ġmanaged",
  "2395": "Ġdivert",
  "2396": "Ġreal",
  "2397": "Ġbus",
  "2398": "Ġbusin",
  "2399": "Ġbusiness",
  "2400": "Ġpret",
  "2401": "Ġprett",
  "2402": "Ġpretty",
  "2403": "Ġirrele",
  "2404": "Ġirrelevance",
  "2405": "Ġdet",
  "2406": "Ġdeta",
  "2407": "Ġdetail",
  "2408": "Ġdetail.",
  "2409": "Ġpresent",
  "2410": "Ġpresenting",
  "2411": "Ġneut",
  "2412": "Ġneutr",
  "2413": "Ġneutral",
  "2414": "Ġsurf",
  "2415": "Ġsurface",
  "2416": "Ġon--for",
  "2417": "Ġon--forming,",
  "2418": "Ġinevitab",
  "2419": "Ġinevitably",
  "2420": "Ġbackg",
  "2421": "Ġbackground",
  "2422": "Ġpicture--had",
  "2423": "Ġlent",
  "2424": "Ġunus",
  "2425": "Ġunusual",
  "2426": "Ġfal",
  "2427": "Ġfalse",
  "2428": "Ġvir",
  "2429": "Ġvirt",
  "2430": "Ġvirtu",
  "2431": "Ġvirtuos",
  "2432": "Ġvirtuosity.",
  "2433": "Ġ\"strongest",
  "2434": "Ġ\"strongest,\"",
  "2435": "Ġadmi",
  "2436": "Ġadmire",
  "2437": "Ġadmirers",
  "2438": "Ġit--it",
  "2439": "Ġrepresent",
  "2440": "Ġrepresented,",
  "2441": "Ġpar",
  "2442": "Ġpart,",
  "2443": "Ġswell",
  "2444": "Ġswelling",
  "2445": "Ġmus",
  "2446": "Ġmuscl",
  "2447": "Ġmuscles,",
  "2448": "Ġcong",
  "2449": "Ġcongest",
  "2450": "Ġcongesting",
  "2451": "Ġve",
  "2452": "Ġvein",
  "2453": "Ġveins,",
  "2454": "Ġbalanc",
  "2455": "Ġbalancing,",
  "2456": "Ġstrad",
  "2457": "Ġstradd",
  "2458": "Ġstraddling",
  "2459": "Ġstraining,",
  "2460": "Ġremind",
  "2461": "Ġreminded",
  "2462": "Ġcircus",
  "2463": "Ġcircus-c",
  "2464": "Ġcircus-cl",
  "2465": "Ġcircus-clown",
  "2466": "Ġcircus-clown's",
  "2467": "Ġironic",
  "2468": "Ġeffor",
  "2469": "Ġeffort",
  "2470": "Ġefforts",
  "2471": "Ġfe",
  "2472": "Ġfeather",
  "2473": "Ġfeather.",
  "2474": "Ġmet,",
  "2475": "Ġshor",
  "2476": "Ġshort,",
  "2477": "Ġdem",
  "2478": "Ġdemand",
  "2479": "Ġlov",
  "2480": "Ġlovely",
  "2481": "Ġ\"strongly\"",
  "2482": "Ġ\"sw",
  "2483": "Ġ\"sweet",
  "2484": "Ġ\"sweetly\"",
  "2485": "Ġ\"sweetly\"--and",
  "2486": "Ġlose",
  "2487": "Ġatom",
  "2488": "Ġsweet",
  "2489": "Ġsweetnes",
  "2490": "Ġsweetness.",
  "2491": "\"It's",
  "2492": "Ġpainted,",
  "2493": "Ġknow,\"",
  "2494": "Ġpardonable",
  "2495": "Ġprid",
  "2496": "Ġpride.",
  "2497": "Ġ\"The",
  "2498": "Ġone,\"",
  "2499": "Ġcor",
  "2500": "Ġcorre",
  "2501": "Ġcorrected",
  "2502": "Ġherself--\"",
  "2503": "Ġherself--\"b",
  "2504": "Ġherself--\"but",
  "2505": "Ġcount,",
  "2506": "Ġdestroyed",
  "2507": "Ġit.\"",
  "2508": "\"Des",
  "2509": "\"Destr",
  "2510": "\"Destroyed",
  "2511": "Ġclue",
  "2512": "Ġfoot",
  "2513": "Ġfootst",
  "2514": "Ġfootstep",
  "2515": "Ġthres",
  "2516": "Ġthresh",
  "2517": "Ġthresho",
  "2518": "Ġthreshold",
  "2519": "Ġthreshold.",
  "2520": "As",
  "2521": "Ġthere,",
  "2522": "Ġpoc",
  "2523": "Ġpocket",
  "2524": "Ġpockets",
  "2525": "Ġvel",
  "2526": "Ġvelve",
  "2527": "Ġvelvet",
  "2528": "Ġvelveteen",
  "2529": "Ġcoat",
  "2530": "Ġcoat,",
  "2531": "Ġwa",
  "2532": "Ġwaves",
  "2533": "Ġhair",
  "2534": "Ġforehe",
  "2535": "Ġforehead",
  "2536": "Ġforehead,",
  "2537": "Ġlean",
  "2538": "Ġsunburnt",
  "2539": "Ġfurrow",
  "2540": "Ġfurrowed",
  "2541": "Ġlifted",
  "2542": "Ġtips",
  "2543": "Ġself",
  "2544": "Ġself-c",
  "2545": "Ġself-con",
  "2546": "Ġself-confident",
  "2547": "Ġmou",
  "2548": "Ġmoust",
  "2549": "Ġmoustac",
  "2550": "Ġmoustache",
  "2551": "Ġmoustache,",
  "2552": "Ġsame",
  "2553": "Ġpictures--the",
  "2554": "Ġcleve",
  "2555": "Ġclevere",
  "2556": "Ġcleverer",
  "2557": "Ġwas.",
  "2558": "Ġdeprecatingly,",
  "2559": "Ġtrav",
  "2560": "Ġtravell",
  "2561": "Ġtravelled",
  "2562": "Ġportrait.",
  "2563": "\"Mr.",
  "2564": "Ġit,\"",
  "2565": "Ġbegan,",
  "2566": "Ġexcusing",
  "2567": "Ġherself.",
  "2568": "Ġshrugged",
  "2569": "Ġshoulders,",
  "2570": "Ġsmil",
  "2571": "Ġsmiling.",
  "2572": "Ġago",
  "2573": "Ġago,\"",
  "2574": "Ġlightly",
  "2575": "Ġlightly;",
  "2576": "Ġthen,",
  "2577": "Ġpassing",
  "2578": "Ġmine",
  "2579": "Ġmine:",
  "2580": "Ġ\"C",
  "2581": "Ġ\"Come",
  "2582": "Ġshowed",
  "2583": "Ġna",
  "2584": "Ġnaive",
  "2585": "Ġsuburb",
  "2586": "Ġsuburban",
  "2587": "Ġpride",
  "2588": "Ġpride:",
  "2589": "Ġbath",
  "2590": "Ġbath-room",
  "2591": "Ġbath-rooms,",
  "2592": "Ġspe",
  "2593": "Ġspeaking",
  "2594": "Ġspeaking-t",
  "2595": "Ġspeaking-tub",
  "2596": "Ġspeaking-tubes,",
  "2597": "Ġdress",
  "2598": "Ġdress-c",
  "2599": "Ġdress-close",
  "2600": "Ġdress-closet",
  "2601": "Ġdress-closets,",
  "2602": "Ġtrous",
  "2603": "Ġtrouser",
  "2604": "Ġtrouser-p",
  "2605": "Ġtrouser-press",
  "2606": "Ġtrouser-presses--",
  "2607": "Ġtrouser-presses--all",
  "2608": "Ġcomple",
  "2609": "Ġcomplex",
  "2610": "Ġsimpl",
  "2611": "Ġsimplific",
  "2612": "Ġsimplifications",
  "2613": "Ġmill",
  "2614": "Ġmillion",
  "2615": "Ġmillionai",
  "2616": "Ġmillionaire",
  "2617": "Ġmillionaire's",
  "2618": "Ġdom",
  "2619": "Ġdomest",
  "2620": "Ġdomestic",
  "2621": "Ġec",
  "2622": "Ġecon",
  "2623": "Ġeconom",
  "2624": "Ġeconomy.",
  "2625": "Ġwhenever",
  "2626": "Ġpaid",
  "2627": "Ġexpected",
  "2628": "Ġtribute",
  "2629": "Ġthrowing",
  "2630": "Ġchest",
  "2631": "Ġlittle:",
  "2632": "Ġ\"Y",
  "2633": "Ġ\"Yes,",
  "2634": "Ġlive",
  "2635": "Ġthat.\"",
  "2636": "Well--it",
  "2637": "Ġforese",
  "2638": "Ġforeseen",
  "2639": "ĠOnly",
  "2640": "Ġall--as",
  "2641": "Ġthrough,",
  "2642": "Ġof,",
  "2643": "Ġpictures--so",
  "2644": "Ġhandsome,",
  "2645": "Ġcharming,",
  "2646": "Ġdisar",
  "2647": "Ġdisarming,",
  "2648": "Ġout:",
  "2649": "Ġleis",
  "2650": "Ġleisure",
  "2651": "Ġleisure!\"",
  "2652": "Ġwork!\"",
  "2653": "But",
  "2654": "But,",
  "2655": "Ġdiag",
  "2656": "Ġdiagn",
  "2657": "Ġdiagnos",
  "2658": "Ġdiagnosis",
  "2659": "Ġsuff",
  "2660": "Ġsuffered",
  "2661": "Ġchec",
  "2662": "Ġcheck.",
  "2663": "\"Th",
  "2664": "\"This",
  "2665": "Ġlair",
  "2666": "Ġlair,\"",
  "2667": "Ġlead",
  "2668": "Ġleading",
  "2669": "Ġdar",
  "2670": "Ġdark",
  "2671": "Ġflor",
  "2672": "Ġflorid",
  "2673": "Ġvista.",
  "2674": "Ġsqu",
  "2675": "Ġsquare",
  "2676": "Ġleather",
  "2677": "Ġleathery",
  "2678": "Ġleathery:",
  "2679": "Ġ\"e",
  "2680": "Ġ\"eff",
  "2681": "Ġ\"effect",
  "2682": "Ġ\"effects\"",
  "2683": "Ġ\"effects\";",
  "2684": "Ġbric",
  "2685": "Ġbric-",
  "2686": "Ġbric-a",
  "2687": "Ġbric-a-b",
  "2688": "Ġbric-a-br",
  "2689": "Ġbric-a-brac",
  "2690": "Ġbric-a-brac,",
  "2691": "Ġnone",
  "2692": "Ġair",
  "2693": "Ġrepro",
  "2694": "Ġreprod",
  "2695": "Ġreproduction",
  "2696": "Ġweekly",
  "2697": "Ġweekly--",
  "2698": "Ġweekly--ab",
  "2699": "Ġweekly--above",
  "2700": "Ġall,",
  "2701": "Ġleast",
  "2702": "Ġsign",
  "2703": "Ġused",
  "2704": "Ġstud",
  "2705": "Ġstudi",
  "2706": "Ġstudio",
  "2707": "Ġstudio.",
  "2708": "Ġhome",
  "2709": "Ġabsol",
  "2710": "Ġabsolute",
  "2711": "Ġfin",
  "2712": "Ġfinal",
  "2713": "Ġfinality",
  "2714": "Ġbreak",
  "2715": "Ġlife.",
  "2716": "\"Don't",
  "2717": "Ġmore?\"",
  "2718": "Ġasked,",
  "2719": "Ġtrace",
  "2720": "Ġactiv",
  "2721": "Ġactivity.",
  "2722": "\"Never,\"",
  "2723": "Ġbrie",
  "2724": "Ġbrief",
  "2725": "Ġbriefly.",
  "2726": "\"Or",
  "2727": "Ġwater",
  "2728": "Ġwater-c",
  "2729": "Ġwater-colour",
  "2730": "Ġwater-colour--or",
  "2731": "Ġet",
  "2732": "Ġetching",
  "2733": "Ġetching?\"",
  "2734": "Ġconfident",
  "2735": "Ġdim,",
  "2736": "Ġpaled",
  "2737": "Ġsunburn.",
  "2738": "Ġfellow--an",
  "2739": "Ġfellow--any",
  "2740": "ĠI'd",
  "2741": "Ġtouched",
  "2742": "Ġbrush.\"",
  "2743": "Ġtone",
  "2744": "Ġflash",
  "2745": "Ġelse.",
  "2746": "Ġinstinct",
  "2747": "Ġinstinctively",
  "2748": "Ġem",
  "2749": "Ġemb",
  "2750": "Ġembarr",
  "2751": "Ġembarrass",
  "2752": "Ġembarrassed",
  "2753": "Ġdisco",
  "2754": "Ġdiscovery",
  "2755": "Ġdiscovery;",
  "2756": "Ġturned,",
  "2757": "Ġsmall",
  "2758": "Ġmantel-piece",
  "2759": "Ġmantel-piece--the",
  "2760": "Ġbreaking",
  "2761": "Ġoak",
  "2762": "Ġpanell",
  "2763": "Ġpanelling",
  "2764": "Ġroom.",
  "2765": "ĠJove!\"",
  "2766": "Ġdonkey--an",
  "2767": "Ġdonkey,",
  "2768": "Ġstanding",
  "2769": "Ġrain",
  "2770": "Ġwall.",
  "2771": "\"B",
  "2772": "\"By",
  "2773": "ĠJove--a",
  "2774": "ĠStroud!\"",
  "2775": "Ġcried",
  "2776": "Ġcried.",
  "2777": "Ġsilent",
  "2778": "Ġsilent;",
  "2779": "Ġbreathing",
  "2780": "Ġquick",
  "2781": "Ġquickly.",
  "2782": "\"What",
  "2783": "Ġwonder!",
  "2784": "ĠMade",
  "2785": "Ġdoz",
  "2786": "Ġdozen",
  "2787": "Ġlines",
  "2788": "Ġlines--but",
  "2789": "Ġfoundations.",
  "2790": "Ġluck",
  "2791": "Ġlucky",
  "2792": "Ġchap",
  "2793": "Ġchap,",
  "2794": "Ġsl",
  "2795": "Ġslow",
  "2796": "Ġslowly",
  "2797": "Ġslowly:",
  "2798": "Ġ\"Mrs.",
  "2799": "Ġgave",
  "2800": "Ġme.\"",
  "2801": "\"Ah",
  "2802": "\"Ah--I",
  "2803": "ĠStrouds.",
  "2804": "Ġinfle",
  "2805": "Ġinflex",
  "2806": "Ġinflexible",
  "2807": "Ġherm",
  "2808": "Ġhermit",
  "2809": "Ġhermit.\"",
  "2810": "Ġdidn't--t",
  "2811": "Ġdidn't--till",
  "2812": "Ġafter.",
  "2813": "\"When",
  "2814": "Ġdead?",
  "2815": "ĠYou?\"",
  "2816": "Ġama",
  "2817": "Ġamaz",
  "2818": "Ġamazem",
  "2819": "Ġamazement",
  "2820": "Ġes",
  "2821": "Ġesc",
  "2822": "Ġescap",
  "2823": "Ġescape",
  "2824": "Ġsurprise,",
  "2825": "Ġlaugh:",
  "2826": "Ġ\"Yes",
  "2827": "Ġ\"Yes--she's",
  "2828": "Ġaw",
  "2829": "Ġawful",
  "2830": "Ġsimple",
  "2831": "Ġsimpleton",
  "2832": "Ġsimpleton,",
  "2833": "Ġknow,",
  "2834": "Ġpainter--a",
  "2835": "Ġpainter--ah,",
  "2836": "ĠStroud!",
  "2837": "Ġsurest",
  "2838": "Ġprocl",
  "2839": "Ġproclaim",
  "2840": "Ġproclaiming",
  "2841": "Ġgreatness",
  "2842": "Ġgreatness--o",
  "2843": "Ġgreatness--of",
  "2844": "Ġforcing",
  "2845": "Ġpurb",
  "2846": "Ġpurbl",
  "2847": "Ġpurblind",
  "2848": "Ġpublic.",
  "2849": "Ġ_the",
  "2850": "Ġ_the_",
  "2851": "Ġpainter.\"",
  "2852": "\"Ah,",
  "2853": "ĠStroud--as",
  "2854": "ĠWas",
  "2855": "Ġhistory",
  "2856": "Ġhistory?\"",
  "2857": "\"That",
  "2858": "Ġgloried",
  "2859": "Ġhim--or",
  "2860": "Ġdid.",
  "2861": "Ġvar",
  "2862": "Ġvarn",
  "2863": "Ġvarnis",
  "2864": "Ġvarnishing",
  "2865": "Ġdays,",
  "2866": "Ġpictures.",
  "2867": "Ġwoman!",
  "2868": "ĠShe's",
  "2869": "Ġfragments.",
  "2870": "Ġknew.\"",
  "2871": "\"You",
  "2872": "Ġknew?",
  "2873": "Ġsaid--\"",
  "2874": "Gisburn",
  "2875": "Ġcurious",
  "2876": "Ġeyes.",
  "2877": "Ġme--only",
  "2878": "Ġvo",
  "2879": "Ġvoice",
  "2880": "Ġinstinctiv",
  "2881": "Ġinstinctivel",
  "2882": "Ġinstinctively.",
  "2883": "Ġyou?\"",
  "2884": "\"Yes--",
  "2885": "\"Yes--qu",
  "2886": "\"Yes--quite",
  "2887": "Ġinsens",
  "2888": "Ġinsensible",
  "2889": "Ġirony.",
  "2890": "Ġvindicated--and",
  "2891": "Ġme!\"",
  "2892": "Ġdays",
  "2893": "Ġthing--c",
  "2894": "Ġthing--could",
  "2895": "Ġthing--couldn't",
  "2896": "Ġforced",
  "2897": "Ġhere;",
  "2898": "Ġcured",
  "2899": "Ġme--c",
  "2900": "Ġme--cured",
  "2901": "ĠThat's",
  "2902": "Ġmore,",
  "2903": "ĠRickham;",
  "2904": "Ġreason.\"",
  "2905": "For",
  "2906": "Ġidle",
  "2907": "Ġcompan",
  "2908": "Ġcompanion",
  "2909": "Ġserious",
  "2910": "Ġdesire",
  "2911": "Ġbetter.",
  "2912": "Ġwish",
  "2913": "Ġyou'd",
  "2914": "Ġhappened,\"",
  "2915": "Ġsketch,",
  "2916": "Ġtwir",
  "2917": "Ġtwirling",
  "2918": "Ġfing",
  "2919": "Ġfingers",
  "2920": "Ġciga",
  "2921": "Ġcigaret",
  "2922": "Ġcigarette",
  "2923": "Ġforgot",
  "2924": "Ġforgotten",
  "2925": "Ġlight.",
  "2926": "ĠSu",
  "2927": "ĠSudden",
  "2928": "ĠSuddenly",
  "2929": "Ġtoward",
  "2930": "\"I'd",
  "2931": "Ġyou--because",
  "2932": "Ġsus",
  "2933": "Ġsuspected",
  "2934": "Ġloathing",
  "2935": "Ġwork.\"",
  "2936": "Ġgest",
  "2937": "Ġgesture,",
  "2938": "Ġwhich",
  "2939": "Ġneg",
  "2940": "Ġnegat",
  "2941": "Ġnegativ",
  "2942": "Ġnegatived",
  "2943": "Ġshrug",
  "2944": "Ġshrug.",
  "2945": "Ġstraw",
  "2946": "Ġmyself--and",
  "2947": "Ġtie",
  "2948": "Ġus!\"",
  "2949": "Ġslightly,",
  "2950": "Ġbitter",
  "2951": "Ġbitternes",
  "2952": "Ġbitterness,",
  "2953": "Ġarm-chairs",
  "2954": "Ġforward",
  "2955": "Ġforward.",
  "2956": "Ġ\"There:",
  "2957": "Ġmake",
  "2958": "Ġyourself",
  "2959": "Ġcomfor",
  "2960": "Ġcomfort",
  "2961": "Ġcomfortable",
  "2962": "Ġcomfortable--and",
  "2963": "Ġcigars",
  "2964": "Ġlike.\"",
  "2965": "Ġelb",
  "2966": "Ġelbow",
  "2967": "Ġcont",
  "2968": "Ġcontin",
  "2969": "Ġcontinu",
  "2970": "Ġcontinued",
  "2971": "Ġwand",
  "2972": "Ġwander",
  "2973": "Ġstopp",
  "2974": "Ġstopping",
  "2975": "Ġpicture.",
  "2976": "\"How",
  "2977": "Ġhappened?",
  "2978": "Ġfive",
  "2979": "Ġminutes",
  "2980": "Ġminutes--and",
  "2981": "Ġtake",
  "2982": "Ġlonger",
  "2983": "Ġhappen.",
  "2984": "Ġsurprised",
  "2985": "Ġple",
  "2986": "Ġpleas",
  "2987": "Ġpleased",
  "2988": "Ġnote.",
  "2989": "Ġ_felt",
  "2990": "Ġ_felt_",
  "2991": "Ġhim--only",
  "2992": "Ġgone",
  "2993": "Ġstream",
  "2994": "Ġstream,",
  "2995": "Ġech",
  "2996": "Ġecho",
  "2997": "Ġechoed",
  "2998": "Ġusual",
  "2999": "Ġplat",
  "3000": "Ġplatitu",
  "3001": "Ġplatitud",
  "3002": "Ġplatitudes",
  "3003": "Ġfailure,",
  "3004": "Ġbehind.",
  "3005": "ĠBy",
  "3006": "ĠJove,",
  "3007": "Ġbehind--because",
  "3008": "Ġstay!",
  "3009": "Ġours",
  "3010": "Ġoursel",
  "3011": "Ġourselves",
  "3012": "Ġswe",
  "3013": "Ġswept",
  "3014": "Ġalong",
  "3015": "Ġunder,",
  "3016": "Ġhi",
  "3017": "Ġhigh",
  "3018": "Ġcurrent--on",
  "3019": "Ġfoundations,",
  "3020": "Ġeg",
  "3021": "Ġegre",
  "3022": "Ġegreg",
  "3023": "Ġegregious",
  "3024": "Ġmood",
  "3025": "Ġmood--",
  "3026": "Ġmood--r",
  "3027": "Ġmood--rather",
  "3028": "Ġmoved,",
  "3029": "ĠL",
  "3030": "ĠLor",
  "3031": "ĠLord",
  "3032": "Ġforgive",
  "3033": "Ġpath",
  "3034": "Ġpathos",
  "3035": "Ġcareer",
  "3036": "Ġfailure",
  "3037": "Ġcrown",
  "3038": "Ġcrowned",
  "3039": "Ġhim!",
  "3040": "Ġmeant",
  "3041": "Ġnothing",
  "3042": "Ġnothing--I",
  "3043": "Ġstam",
  "3044": "Ġstamm",
  "3045": "Ġstammer",
  "3046": "Ġsom",
  "3047": "Ġsomet",
  "3048": "Ġsomething",
  "3049": "Ġpovert",
  "3050": "Ġpoverty.",
  "3051": "Ġprod",
  "3052": "Ġprodig",
  "3053": "Ġprodigious",
  "3054": "Ġph",
  "3055": "Ġphr",
  "3056": "Ġphras",
  "3057": "Ġphrase",
  "3058": "Ġ_m",
  "3059": "Ġ_mine",
  "3060": "Ġ_mine_",
  "3061": "Ġ_mine_--o",
  "3062": "Ġ_mine_--oh,",
  "3063": "Ġprinc",
  "3064": "Ġprincel",
  "3065": "Ġprincely,",
  "3066": "ĠRickham!",
  "3067": "Ġsitters.",
  "3068": "\"Then",
  "3069": "Ġalone",
  "3070": "Ġtraps",
  "3071": "Ġadvance",
  "3072": "Ġadvance,",
  "3073": "Ġwork.",
  "3074": "Ġtwenty-",
  "3075": "Ġtwenty-f",
  "3076": "Ġtwenty-four",
  "3077": "Ġhou",
  "3078": "Ġhours",
  "3079": "Ġhours,",
  "3080": "Ġsuddenly,",
  "3081": "Ġdise",
  "3082": "Ġdiseas",
  "3083": "Ġdisease,",
  "3084": "Ġprel",
  "3085": "Ġprelimin",
  "3086": "Ġpreliminary",
  "3087": "Ġdestruction",
  "3088": "Ġdestruction--his",
  "3089": "Ġclear",
  "3090": "Ġunt",
  "3091": "Ġuntouched",
  "3092": "Ġuntouched.",
  "3093": "Ġmet",
  "3094": "Ġtwic",
  "3095": "Ġtwice,",
  "3096": "Ġbefore,",
  "3097": "Ġinsign",
  "3098": "Ġinsignific",
  "3099": "Ġinsignificant",
  "3100": "Ġding",
  "3101": "Ġdingy.",
  "3102": "ĠNow",
  "3103": "Ġsuper",
  "3104": "Ġsuperb",
  "3105": "Ġsuperb.",
  "3106": "Ġfirst,",
  "3107": "Ġmerely",
  "3108": "Ġaest",
  "3109": "Ġaesthe",
  "3110": "Ġaesthet",
  "3111": "Ġaesthetic",
  "3112": "Ġsatisfaction:",
  "3113": "Ġ's",
  "3114": "Ġ'su",
  "3115": "Ġ'subject",
  "3116": "Ġ'subject.",
  "3117": "Ġ'subject.'",
  "3118": "ĠThen",
  "3119": "Ġstrang",
  "3120": "Ġstrange",
  "3121": "Ġlife-",
  "3122": "Ġlife-l",
  "3123": "Ġlife-li",
  "3124": "Ġlife-lik",
  "3125": "Ġlife-liken",
  "3126": "Ġlife-likeness",
  "3127": "Ġaffect",
  "3128": "Ġque",
  "3129": "Ġqueer",
  "3130": "Ġqueerly",
  "3131": "Ġqueerly--as",
  "3132": "Ġblo",
  "3133": "Ġbloc",
  "3134": "Ġblocked",
  "3135": "Ġsensation",
  "3136": "Ġthought:",
  "3137": "Ġ_w",
  "3138": "Ġ_were_",
  "3139": "Ġworking",
  "3140": "Ġworking?",
  "3141": "Ġstrok",
  "3142": "Ġstrokes",
  "3143": "Ġwi",
  "3144": "Ġwild",
  "3145": "Ġwild--I",
  "3146": "Ġunc",
  "3147": "Ġuncer",
  "3148": "Ġuncertain",
  "3149": "Ġuncertain.",
  "3150": "\"Once",
  "3151": "\"Once,",
  "3152": "Ġup,",
  "3153": "Ġgrayish",
  "3154": "Ġbeard--as",
  "3155": "Ġsecret,",
  "3156": "Ġamusing",
  "3157": "Ġhold",
  "3158": "Ġholding",
  "3159": "Ġexas",
  "3160": "Ġexasper",
  "3161": "Ġexasperated",
  "3162": "Ġmore.",
  "3163": "Ġsecret?",
  "3164": "ĠWh",
  "3165": "ĠWhy,",
  "3166": "Ġworth",
  "3167": "Ġhis!",
  "3168": "Ġdashed",
  "3169": "Ġfurious",
  "3170": "Ġfuriously,",
  "3171": "Ġbra",
  "3172": "Ġbrav",
  "3173": "Ġbravur",
  "3174": "Ġbravura",
  "3175": "Ġtricks.",
  "3176": "Ġcrum",
  "3177": "Ġcrumb",
  "3178": "Ġcrumbl",
  "3179": "Ġcrumbled.",
  "3180": "Ġwasn't",
  "3181": "Ġbit",
  "3182": "Ġbits",
  "3183": "Ġbits--I",
  "3184": "Ġdistract",
  "3185": "Ġattention;",
  "3186": "Ġkept",
  "3187": "Ġpassag",
  "3188": "Ġpassages",
  "3189": "Ġbetween.",
  "3190": "ĠThose",
  "3191": "Ġones",
  "3192": "Ġshir",
  "3193": "Ġshirked",
  "3194": "Ġshirked,",
  "3195": "Ġlying",
  "3196": "Ġpaint.",
  "3197": "Ġlies",
  "3198": "Ġlies!",
  "3199": "Ġsight",
  "3200": "Ġhanging",
  "3201": "Ġbed.",
  "3202": "ĠHis",
  "3203": "Ġafterward",
  "3204": "Ġdone--",
  "3205": "Ġdone--j",
  "3206": "Ġdone--just",
  "3207": "Ġshaking",
  "3208": "Ġhand,",
  "3209": "ĠDev",
  "3210": "ĠDevon",
  "3211": "ĠDevons",
  "3212": "ĠDevonsh",
  "3213": "ĠDevonshire",
  "3214": "Ġreco",
  "3215": "Ġrecover",
  "3216": "Ġrecovering",
  "3217": "Ġprev",
  "3218": "Ġprevious",
  "3219": "Ġattack",
  "3220": "Ġattack.",
  "3221": "ĠJust",
  "3222": "Ġnote!",
  "3223": "Ġtells",
  "3224": "ĠThere",
  "3225": "Ġpat",
  "3226": "Ġpati",
  "3227": "Ġpatient",
  "3228": "Ġscornful",
  "3229": "Ġpersist",
  "3230": "Ġpersisten",
  "3231": "Ġpersistence",
  "3232": "Ġline.",
  "3233": "Ġswum",
  "3234": "Ġlear",
  "3235": "Ġlearn",
  "3236": "Ġlearned",
  "3237": "Ġmighty",
  "3238": "Ġup-st",
  "3239": "Ġup-stream",
  "3240": "Ġwork,",
  "3241": "Ġmudd",
  "3242": "Ġmuddling",
  "3243": "Ġmuddling;",
  "3244": "Ġagain.",
  "3245": "Ġstroke,",
  "3246": "Ġbe.",
  "3247": "Ġposs",
  "3248": "Ġpossess",
  "3249": "Ġpossessed",
  "3250": "Ġsubject",
  "3251": "Ġsubject,",
  "3252": "Ġabsorb",
  "3253": "Ġabsorbed",
  "3254": "Ġrecre",
  "3255": "Ġrecreated",
  "3256": "ĠWhen",
  "3257": "Ġthings?",
  "3258": "ĠThey",
  "3259": "Ġhadn't",
  "3260": "Ġborn",
  "3261": "Ġme--I",
  "3262": "Ġado",
  "3263": "Ġadopt",
  "3264": "Ġadopted",
  "3265": "Ġthem.",
  "3266": "\"Hang",
  "3267": "Ġanot",
  "3268": "Ġanother",
  "3269": "Ġtrut",
  "3270": "Ġtruth",
  "3271": "Ġit--",
  "3272": "Ġit--_",
  "3273": "Ġit--_I",
  "3274": "Ġknown",
  "3275": "Ġknown_",
  "3276": "Ġknown_.",
  "3277": "ĠOnly,",
  "3278": "Ġpublic,",
  "3279": "Ġspl",
  "3280": "Ġsplash",
  "3281": "Ġcolour",
  "3282": "Ġfact--I",
  "3283": "Ġfac",
  "3284": "Ġfaces.",
  "3285": "ĠWell,",
  "3286": "Ġmedium",
  "3287": "Ġthrough--",
  "3288": "Ġthrough--se",
  "3289": "Ġthrough--see",
  "3290": "Ġstraight",
  "3291": "Ġtot",
  "3292": "Ġtotter",
  "3293": "Ġtottering",
  "3294": "Ġfoundations",
  "3295": "Ġunderne",
  "3296": "Ġunderneath",
  "3297": "Ġunderneath.",
  "3298": "ĠDon't",
  "3299": "Ġhow,",
  "3300": "Ġtal",
  "3301": "Ġtalking",
  "3302": "Ġforeign",
  "3303": "Ġlang",
  "3304": "Ġlangu",
  "3305": "Ġlanguag",
  "3306": "Ġlanguage,",
  "3307": "Ġflu",
  "3308": "Ġfluent",
  "3309": "Ġfluently,",
  "3310": "Ġwants",
  "3311": "Ġcan?",
  "3312": "ĠWell",
  "3313": "ĠWell--that",
  "3314": "Ġpainted;",
  "3315": "Ġwatched",
  "3316": "Ġ't",
  "3317": "Ġ'techn",
  "3318": "Ġ'techni",
  "3319": "Ġ'techniqu",
  "3320": "Ġ'technique",
  "3321": "Ġ'technique'",
  "3322": "Ġcoll",
  "3323": "Ġcollap",
  "3324": "Ġcollaps",
  "3325": "Ġcollapsed",
  "3326": "Ġcard",
  "3327": "Ġcards.",
  "3328": "Ġsne",
  "3329": "Ġsneer",
  "3330": "Ġsneer,",
  "3331": "Ġunderstand,",
  "3332": "ĠStroud--",
  "3333": "ĠStroud--he",
  "3334": "Ġqui",
  "3335": "Ġquiet",
  "3336": "Ġquietly",
  "3337": "Ġwatch",
  "3338": "Ġwatching,",
  "3339": "Ġbeard,",
  "3340": "Ġquestion:",
  "3341": "Ġ'A",
  "3342": "Ġ'Are",
  "3343": "Ġyou're",
  "3344": "Ġcoming",
  "3345": "Ġout?",
  "3346": "Ġout?'",
  "3347": "\"If",
  "3348": "Ġface,",
  "3349": "Ġthing.",
  "3350": "Ġgreatest",
  "3351": "Ġcouldn't--and",
  "3352": "Ġgrace",
  "3353": "ĠBut,",
  "3354": "Ġoh,",
  "3355": "Ġminute,",
  "3356": "Ġear",
  "3357": "Ġearth",
  "3358": "Ġ'It's",
  "3359": "Ġlate--I",
  "3360": "Ġlate--I'",
  "3361": "Ġlate--I'll",
  "3362": "Ġhow'",
  "3363": "Ġhow'?",
  "3364": "Ġlate--it",
  "3365": "Ġbeen,",
  "3366": "Ġalive.",
  "3367": "Ġpack",
  "3368": "Ġpacked",
  "3369": "Ġtraps,",
  "3370": "Ġ_that_--it",
  "3371": "ĠGree",
  "3372": "ĠGreek",
  "3373": "Ġsimply",
  "3374": "Ġmoved.",
  "3375": "Ġidea--she's",
  "3376": "Ġrom",
  "3377": "Ġromant",
  "3378": "Ġromantic",
  "3379": "Ġromantic!",
  "3380": "Ġterrib",
  "3381": "Ġterribly",
  "3382": "Ġupse",
  "3383": "Ġupset",
  "3384": "Ġportrait--she",
  "3385": "Ġ'd",
  "3386": "Ġ'done",
  "3387": "Ġ'done'",
  "3388": "Ġshowy!",
  "3389": "ĠAt",
  "3390": "Ġafr",
  "3391": "Ġafraid",
  "3392": "Ġoff--and",
  "3393": "Ġwits'",
  "3394": "Ġsugg",
  "3395": "Ġsuggest",
  "3396": "Ġsuggested",
  "3397": "ĠGrindle.",
  "3398": "ĠYes,",
  "3399": "Ġstar",
  "3400": "Ġstart",
  "3401": "Ġstarted",
  "3402": "ĠGrindle:",
  "3403": "Ġ'c",
  "3404": "Ġ'coming",
  "3405": "Ġ'coming'",
  "3406": "Ġman,",
  "3407": "Ġsomeb",
  "3408": "Ġsomebo",
  "3409": "Ġsomebod",
  "3410": "Ġsomebody",
  "3411": "Ġelse",
  "3412": "Ġelse,",
  "3413": "Ġtru",
  "3414": "Ġtrue.",
  "3415": "Ġwincing;",
  "3416": "Ġhusband's",
  "3417": "Ġthings.",
  "3418": "Ġ.\"",
  "3419": "Ġflung",
  "3420": "Ġmine,",
  "3421": "Ġhead,",
  "3422": "Ġclas",
  "3423": "Ġclasping",
  "3424": "Ġarms",
  "3425": "Ġchim",
  "3426": "Ġchimne",
  "3427": "Ġchimney",
  "3428": "Ġchimney-piec",
  "3429": "Ġchimney-piece.",
  "3430": "Ġfanc",
  "3431": "Ġfancy",
  "3432": "Ġday.\"",
  "3433": "And,",
  "3434": "Ġanswer",
  "3435": "Ġhalf-m",
  "3436": "Ġhalf-mech",
  "3437": "Ġhalf-mechan",
  "3438": "Ġhalf-mechanic",
  "3439": "Ġhalf-mechanically",
  "3440": "Ġhalf-mechanically--\"",
  "3441": "Ġhalf-mechanically--\"Be",
  "3442": "Ġhalf-mechanically--\"Beg",
  "3443": "Ġhalf-mechanically--\"Begin",
  "3444": "Ġagain?\"",
  "3445": "Ġflashed",
  "3446": "Ġout.",
  "3447": "Ġbring",
  "3448": "Ġbrings",
  "3449": "Ġanyw",
  "3450": "Ġanywhere",
  "3451": "Ġleave",
  "3452": "Ġoff?\"",
  "3453": "Ġlaugh.",
  "3454": "Ġ\"On",
  "3455": "Ġ\"Only",
  "3456": "Ġirony",
  "3457": "Ġ_am",
  "3458": "Ġ_am_",
  "3459": "Ġpainting--since",
  "3460": "ĠGrindle's",
  "3461": "Ġdoing",
  "3462": "Ġme!",
  "3463": "ĠStrouds",
  "3464": "Ġalon",
  "3465": "Ġalone,",
  "3466": "Ġonce--but",
  "3467": "Ġthere's",
  "3468": "Ġexter",
  "3469": "Ġexterm",
  "3470": "Ġextermin",
  "3471": "Ġexterminating",
  "3472": "Ġart.\""
}